{
  "version": "1.0",
  "truncation": null,
  "padding": null,
  "added_tokens": [
    {
      "id": 0,
      "content": "<pad>",
      "single_word": false,
      "lstrip": false,
      "rstrip": false,
      "normalized": false,
      "special": true
    },
    {
      "id": 1,
      "content": "<unk>",
      "single_word": false,
      "lstrip": false,
      "rstrip": false,
      "normalized": false,
      "special": true
    },
    {
      "id": 2,
      "content": "<bos>",
      "single_word": false,
      "lstrip": false,
      "rstrip": false,
      "normalized": false,
      "special": true
    },
    {
      "id": 3,
      "content": "<eos>",
      "single_word": false,
      "lstrip": false,
      "rstrip": false,
      "normalized": false,
      "special": true
    },
    {
      "id": 4,
      "content": "<personality>",
      "single_word": false,
      "lstrip": false,
      "rstrip": false,
      "normalized": false,
      "special": true
    }
  ],
  "normalizer": null,
  "pre_tokenizer": {
    "type": "ByteLevel",
    "add_prefix_space": true,
    "trim_offsets": true,
    "use_regex": true
  },
  "post_processor": null,
  "decoder": null,
  "model": {
    "type": "BPE",
    "dropout": null,
    "unk_token": null,
    "continuing_subword_prefix": null,
    "end_of_word_suffix": null,
    "fuse_unk": false,
    "byte_fallback": false,
    "ignore_merges": false,
    "vocab": {
      "<pad>": 0,
      "<unk>": 1,
      "<bos>": 2,
      "<eos>": 3,
      "<personality>": 4,
      "!": 5,
      "\"": 6,
      "#": 7,
      "$": 8,
      "%": 9,
      "&": 10,
      "'": 11,
      "(": 12,
      ")": 13,
      "*": 14,
      "+": 15,
      ",": 16,
      "-": 17,
      ".": 18,
      "/": 19,
      "0": 20,
      "1": 21,
      "2": 22,
      "3": 23,
      "4": 24,
      "5": 25,
      "6": 26,
      "7": 27,
      "8": 28,
      "9": 29,
      ":": 30,
      ";": 31,
      "=": 32,
      "?": 33,
      "@": 34,
      "A": 35,
      "B": 36,
      "C": 37,
      "D": 38,
      "E": 39,
      "F": 40,
      "G": 41,
      "H": 42,
      "I": 43,
      "J": 44,
      "K": 45,
      "L": 46,
      "M": 47,
      "N": 48,
      "O": 49,
      "P": 50,
      "Q": 51,
      "R": 52,
      "S": 53,
      "T": 54,
      "U": 55,
      "V": 56,
      "W": 57,
      "X": 58,
      "Y": 59,
      "Z": 60,
      "[": 61,
      "\\": 62,
      "]": 63,
      "^": 64,
      "_": 65,
      "`": 66,
      "a": 67,
      "b": 68,
      "c": 69,
      "d": 70,
      "e": 71,
      "f": 72,
      "g": 73,
      "h": 74,
      "i": 75,
      "j": 76,
      "k": 77,
      "l": 78,
      "m": 79,
      "n": 80,
      "o": 81,
      "p": 82,
      "q": 83,
      "r": 84,
      "s": 85,
      "t": 86,
      "u": 87,
      "v": 88,
      "w": 89,
      "x": 90,
      "y": 91,
      "z": 92,
      "~": 93,
      "¡": 94,
      "¢": 95,
      "£": 96,
      "¤": 97,
      "¥": 98,
      "¦": 99,
      "§": 100,
      "¨": 101,
      "©": 102,
      "ª": 103,
      "«": 104,
      "¬": 105,
      "®": 106,
      "¯": 107,
      "°": 108,
      "±": 109,
      "²": 110,
      "³": 111,
      "´": 112,
      "µ": 113,
      "¶": 114,
      "·": 115,
      "¸": 116,
      "¹": 117,
      "º": 118,
      "»": 119,
      "¼": 120,
      "½": 121,
      "¾": 122,
      "¿": 123,
      "Â": 124,
      "Ã": 125,
      "Å": 126,
      "É": 127,
      "Ê": 128,
      "Ë": 129,
      "Í": 130,
      "Î": 131,
      "Ï": 132,
      "Ð": 133,
      "Ñ": 134,
      "à": 135,
      "á": 136,
      "â": 137,
      "ã": 138,
      "ï": 139,
      "ð": 140,
      "ĉ": 141,
      "Ċ": 142,
      "Ġ": 143,
      "Ģ": 144,
      "ģ": 145,
      "Ĥ": 146,
      "ĥ": 147,
      "Ħ": 148,
      "ħ": 149,
      "Ĩ": 150,
      "ĩ": 151,
      "Ī": 152,
      "ī": 153,
      "Ĭ": 154,
      "ĭ": 155,
      "Į": 156,
      "į": 157,
      "İ": 158,
      "ı": 159,
      "Ĳ": 160,
      "ĳ": 161,
      "Ĵ": 162,
      "ĵ": 163,
      "Ķ": 164,
      "ķ": 165,
      "ĸ": 166,
      "Ĺ": 167,
      "ĺ": 168,
      "Ļ": 169,
      "ļ": 170,
      "Ľ": 171,
      "ľ": 172,
      "Ŀ": 173,
      "ŀ": 174,
      "Ł": 175,
      "ł": 176,
      "Ń": 177,
      "Ġt": 178,
      "he": 179,
      "Ġa": 180,
      "in": 181,
      "Ġthe": 182,
      "Ġs": 183,
      "Ġw": 184,
      "re": 185,
      "Ġo": 186,
      "nd": 187,
      "Ġh": 188,
      "er": 189,
      "ed": 190,
      "at": 191,
      "Ġb": 192,
      "ou": 193,
      "it": 194,
      "ing": 195,
      "is": 196,
      "Ġc": 197,
      "Ġf": 198,
      "en": 199,
      "Ġand": 200,
      "on": 201,
      "Ġto": 202,
      "Ġm": 203,
      "Ġd": 204,
      "or": 205,
      "as": 206,
      "an": 207,
      "Ġof": 208,
      "Ġth": 209,
      "es": 210,
      "ll": 211,
      "Ġhe": 212,
      "ar": 213,
      "Ġl": 214,
      "Ġp": 215,
      "ĠĊ": 216,
      "Ġin": 217,
      "Ġn": 218,
      "om": 219,
      "Ġg": 220,
      "le": 221,
      "ad": 222,
      "ow": 223,
      "ot": 224,
      "im": 225,
      "ĠI": 226,
      "Ġbe": 227,
      "ut": 228,
      "ic": 229,
      "ly": 230,
      "Ġe": 231,
      "id": 232,
      "Ġon": 233,
      "Ġy": 234,
      "st": 235,
      "Ġthat": 236,
      "Ġwh": 237,
      "Ġwas": 238,
      "Ġre": 239,
      "Ġhis": 240,
      "se": 241,
      "âĢ": 242,
      "ve": 243,
      "ce": 244,
      "ent": 245,
      "Ġ\"": 246,
      "ld": 247,
      "ith": 248,
      "Ġit": 249,
      "et": 250,
      "Ġyou": 251,
      "Ġwith": 252,
      "ay": 253,
      "gh": 254,
      "Ġu": 255,
      "al": 256,
      "ĠT": 257,
      "ion": 258,
      "Ġr": 259,
      "ĠA": 260,
      "Ġst": 261,
      "..": 262,
      "ver": 263,
      "Ġnot": 264,
      "ur": 265,
      "ðŁ": 266,
      "Ġas": 267,
      "ir": 268,
      "Ġha": 269,
      "Ġhim": 270,
      "oo": 271,
      "ĠP": 272,
      "Ġfor": 273,
      "ch": 274,
      "Ġat": 275,
      "Ġhad": 276,
      "am": 277,
      "ere": 278,
      "ght": 279,
      "âĢĻ": 280,
      "Ġher": 281,
      "Ġan": 282,
      "'s": 283,
      "ov": 284,
      "ri": 285,
      "ac": 286,
      "ess": 287,
      "ĠM": 288,
      "Ġis": 289,
      "ĠThe": 290,
      "ter": 291,
      "ke": 292,
      "her": 293,
      "ĠB": 294,
      "ĠH": 295,
      "ol": 296,
      "Ġse": 297,
      "all": 298,
      "if": 299,
      "ĠðŁ": 300,
      "Ġsa": 301,
      "ss": 302,
      "Ġso": 303,
      "ill": 304,
      "ĠS": 305,
      "Ġfr": 306,
      "ould": 307,
      "Ġsh": 308,
      "ĠN": 309,
      "il": 310,
      "Ġbut": 311,
      "ct": 312,
      "ich": 313,
      "Ġk": 314,
      "Ġme": 315,
      "ro": 316,
      "and": 317,
      "pp": 318,
      "ain": 319,
      "ome": 320,
      "ight": 321,
      "Ġfrom": 322,
      "ore": 323,
      "Ġall": 324,
      "out": 325,
      "Ġshe": 326,
      "ant": 327,
      "Ġcon": 328,
      "Ġde": 329,
      "Ġsu": 330,
      "Ġsaid": 331,
      "ĠâĢ": 332,
      "ers": 333,
      "Ġne": 334,
      "Ġdo": 335,
      "Ġwho": 336,
      "ĠâĢĺ": 337,
      "Ġex": 338,
      "ell": 339,
      "rin": 340,
      "ĠW": 341,
      "ard": 342,
      "qu": 343,
      "el": 344,
      "hing": 345,
      "ust": 346,
      "Ġby": 347,
      "ag": 348,
      "ame": 349,
      "Ġv": 350,
      "us": 351,
      "nt": 352,
      "ked": 353,
      "pe": 354,
      "Ġwere": 355,
      "Ġup": 356,
      "Ġthis": 357,
      "Ġhave": 358,
      "em": 359,
      "Ġor": 360,
      "ĠR": 361,
      "Ġal": 362,
      "one": 363,
      "Ġone": 364,
      "...": 365,
      "king": 366,
      "ble": 367,
      "Ġkn": 368,
      "Ġwhe": 369,
      "sel": 370,
      "Ġmy": 371,
      "est": 372,
      "Ġli": 373,
      "ap": 374,
      "very": 375,
      "ul": 376,
      "Ġj": 377,
      "ous": 378,
      ",\"": 379,
      "ĠAnd": 380,
      "Ġar": 381,
      "os": 382,
      "art": 383,
      "Ġwhat": 384,
      "ost": 385,
      "ĠD": 386,
      "ation": 387,
      "Ġout": 388,
      "ier": 389,
      "Ġthey": 390,
      "ĠC": 391,
      "Ġno": 392,
      "'t": 393,
      "Ġab": 394,
      "ound": 395,
      "ist": 396,
      "ĠF": 397,
      "Ġman": 398,
      "red": 399,
      "ha": 400,
      "Ġle": 401,
      "Ġwhich": 402,
      "self": 403,
      "ood": 404,
      "ie": 405,
      "ong": 406,
      "Ġcom": 407,
      "Ġint": 408,
      "Ġgo": 409,
      "ate": 410,
      "ind": 411,
      "--": 412,
      "hed": 413,
      "ĠHe": 414,
      "Ġwe": 415,
      "Ġthem": 416,
      "ace": 417,
      "op": 418,
      "Ġtr": 419,
      "ig": 420,
      "own": 421,
      "Ġdid": 422,
      "ack": 423,
      "ĠPrin": 424,
      "Ġthere": 425,
      "Ġro": 426,
      "!\"": 427,
      "um": 428,
      "Ġch": 429,
      "un": 430,
      "ĠðŁĺ": 431,
      "Ġloo": 432,
      "au": 433,
      "Ġare": 434,
      "Ġwor": 435,
      "ierre": 436,
      "Ġbeen": 437,
      "ĠPierre": 438,
      "Ġsome": 439,
      "ven": 440,
      "Ġwould": 441,
      "ered": 442,
      "ally": 443,
      "Ġun": 444,
      "hat": 445,
      "ast": 446,
      "nder": 447,
      "Ġoff": 448,
      "Ġqu": 449,
      "ress": 450,
      "ount": 451,
      "ity": 452,
      "Ġtim": 453,
      "Ġag": 454,
      "ĠG": 455,
      "od": 456,
      "ĠO": 457,
      "ary": 458,
      "Ġpl": 459,
      "ra": 460,
      "ite": 461,
      "ĠK": 462,
      "Ġknow": 463,
      "Ġtheir": 464,
      "ort": 465,
      "ĠE": 466,
      "Ġthou": 467,
      "per": 468,
      "way": 469,
      "?\"": 470,
      "Ġsm": 471,
      ".\"": 472,
      "Ġabout": 473,
      "Ġlike": 474,
      "Ġnow": 475,
      "ang": 476,
      "Ġfe": 477,
      "rew": 478,
      "pl": 479,
      "ry": 480,
      "ice": 481,
      "ren": 482,
      "urn": 483,
      "Ġta": 484,
      "ove": 485,
      "ive": 486,
      "itt": 487,
      "Ġany": 488,
      "Ġcan": 489,
      "Ġyour": 490,
      "ther": 491,
      "our": 492,
      "Ġif": 493,
      "pt": 494,
      "Ġsp": 495,
      "Ġwhen": 496,
      "ĠPrince": 497,
      "Ġaf": 498,
      "ĠL": 499,
      "Ġim": 500,
      "Ġad": 501,
      "Ġwill": 502,
      "ide": 503,
      "Ġonly": 504,
      "Ġinto": 505,
      "ck": 506,
      "Ġcould": 507,
      "Ġtime": 508,
      "Ġbeg": 509,
      "Ġmore": 510,
      "Ġunder": 511,
      "Ġpe": 512,
      "Ġhand": 513,
      "na": 514,
      "ĠY": 515,
      "ass": 516,
      "av": 517,
      "ep": 518,
      "ssi": 519,
      "Ġevery": 520,
      "Ġpre": 521,
      "cess": 522,
      "ose": 523,
      "Ġey": 524,
      "Ġam": 525,
      "Ġtoo": 526,
      "Ġjust": 527,
      "other": 528,
      "Ġsay": 529,
      "ile": 530,
      "Ġbl": 531,
      "Ġsee": 532,
      "asha": 533,
      "Ġpro": 534,
      "Ġcl": 535,
      "Ġco": 536,
      "ire": 537,
      "Ġhow": 538,
      "Ġtw": 539,
      "ure": 540,
      "Ġhimself": 541,
      "are": 542,
      "Ġarm": 543,
      "ðŁĺ": 544,
      "atasha": 545,
      "Ġover": 546,
      "Ġdis": 547,
      "Ġthen": 548,
      "ment": 549,
      "ĠBut": 550,
      "ak": 551,
      "ĠNatasha": 552,
      "ĠĠ": 553,
      "ĠIt": 554,
      "ud": 555,
      "Ġother": 556,
      "Ġdown": 557,
      "ied": 558,
      "th": 559,
      "ife": 560,
      "fore": 561,
      "ious": 562,
      "Ġagain": 563,
      "Ġget": 564,
      "Ġpr": 565,
      "ff": 566,
      "ance": 567,
      "Ġday": 568,
      "Ġeyes": 569,
      "Ġpo": 570,
      "iv": 571,
      "reat": 572,
      "Ġbec": 573,
      "Ġthought": 574,
      "Ġeven": 575,
      "Ġbr": 576,
      "Ġfl": 577,
      "Ġface": 578,
      "ine": 579,
      "ĠAndrew": 580,
      "ies": 581,
      "Ġwent": 582,
      "ab": 583,
      "Ġrem": 584,
      "Ġgr": 585,
      "ft": 586,
      "sk": 587,
      "ear": 588,
      "Ġgl": 589,
      "Ġdon": 590,
      "omet": 591,
      "rench": 592,
      "ĠRost": 593,
      "Ġfir": 594,
      "ĠV": 595,
      "Ġen": 596,
      "ĠFrench": 597,
      "Ġhead": 598,
      "cc": 599,
      "iz": 600,
      "ence": 601,
      "ated": 602,
      "thing": 603,
      "ull": 604,
      "Ġma": 605,
      "ions": 606,
      "Ġthin": 607,
      "Ġbefore": 608,
      "ect": 609,
      "Ġ:": 610,
      "Ġvery": 611,
      "'m": 612,
      "Ġlong": 613,
      "ause": 614,
      "Ġcount": 615,
      "Ġapp": 616,
      "Ġback": 617,
      "Ġroom": 618,
      "ried": 619,
      "Ġturn": 620,
      "Ġsomet": 621,
      "Ġsame": 622,
      "ady": 623,
      "Ġbegan": 624,
      "ish": 625,
      "arg": 626,
      "Ġus": 627,
      "ough": 628,
      "wn": 629,
      "ened": 630,
      "Ġhapp": 631,
      "ree": 632,
      "age": 633,
      "Ġcame": 634,
      "Ġhas": 635,
      "ning": 636,
      "Ġthan": 637,
      "Ġcont": 638,
      "ave": 639,
      "ĠRostov": 640,
      "end": 641,
      "ans": 642,
      "ness": 643,
      "Ġold": 644,
      "Ġshould": 645,
      "Ġstill": 646,
      "Ġafter": 647,
      "ks": 648,
      "Ġasked": 649,
      "ru": 650,
      "able": 651,
      "ign": 652,
      "Ġgood": 653,
      "Ġspe": 654,
      "ya": 655,
      "Ġseem": 656,
      "ade": 657,
      "ole": 658,
      "row": 659,
      "ev": 660,
      "Ġwhere": 661,
      "ving": 662,
      "ward": 663,
      "kh": 664,
      "ci": 665,
      "co": 666,
      "Ġcomm": 667,
      "Ġcome": 668,
      "Ġfo": 669,
      "Ġmen": 670,
      "Ġpeop": 671,
      "ick": 672,
      ",âĢĻ": 673,
      "amp": 674,
      "ĠTh": 675,
      "Ġfirst": 676,
      "Ġlet": 677,
      "Ġsomething": 678,
      "ĠShe": 679,
      "ittle": 680,
      "ĠMos": 681,
      "cow": 682,
      "anc": 683,
      "ber": 684,
      "Ġword": 685,
      "oy": 686,
      "Ġwant": 687,
      "ue": 688,
      "Ġaway": 689,
      "Ġ(": 690,
      "Ġlittle": 691,
      "act": 692,
      "Ġpeople": 693,
      "ĠMoscow": 694,
      "hen": 695,
      "Ġvo": 696,
      "ea": 697,
      "Ġthing": 698,
      "ty": 699,
      "Ġway": 700,
      "ener": 701,
      "ĠRu": 702,
      "ĠJ": 703,
      "ful": 704,
      "Ġhere": 705,
      "ĠAn": 706,
      "led": 707,
      "att": 708,
      "Ġright": 709,
      "Ġwithout": 710,
      "ather": 711,
      "press": 712,
      "Ġtal": 713,
      "leas": 714,
      "cl": 715,
      "ors": 716,
      "!!": 717,
      "uch": 718,
      "Ġtwo": 719,
      "ĠRussi": 720,
      "Ġact": 721,
      "Ġits": 722,
      "Ġatt": 723,
      "Ġord": 724,
      "Ġfeel": 725,
      "Ġev": 726,
      "Ġser": 727,
      "ĠIn": 728,
      "ach": 729,
      "Ġleft": 730,
      "ently": 731,
      "Ġpart": 732,
      "Ġprin": 733,
      "Ġlife": 734,
      "Ġgot": 735,
      "ting": 736,
      "Ġour": 737,
      "Ġres": 738,
      "ĠMary": 739,
      "Ġlooked": 740,
      "ĠOn": 741,
      "Ġunderst": 742,
      "ouse": 743,
      "iss": 744,
      "Ġthose": 745,
      "man": 746,
      "den": 747,
      "!âĢĻ": 748,
      "ge": 749,
      "ily": 750,
      "ps": 751,
      "Ġthr": 752,
      "Ġoffic": 753,
      "Ġi": 754,
      "Ġsc": 755,
      "elt": 756,
      "ĠEm": 757,
      "Ġbet": 758,
      "Ġent": 759,
      "orm": 760,
      "ory": 761,
      "Ġcons": 762,
      "Ġsuch": 763,
      "Ġfelt": 764,
      "Ġthese": 765,
      "Ġho": 766,
      "Ġdes": 767,
      "Ġnew": 768,
      "pect": 769,
      "Ġbecause": 770,
      "ons": 771,
      "Ġmom": 772,
      "Ġlove": 773,
      "ted": 774,
      "Ġimp": 775,
      "Ġanother": 776,
      "arit": 777,
      "ait": 778,
      "here": 779,
      "Ġthink": 780,
      "Ġreg": 781,
      "Ġmust": 782,
      "ying": 783,
      "Ġfri": 784,
      "ise": 785,
      "ng": 786,
      "ĠMarg": 787,
      "'ll": 788,
      "az": 789,
      "Ġcomp": 790,
      "Ġseemed": 791,
      "Ġnever": 792,
      "Ġarmy": 793,
      "Ġmade": 794,
      "Ġstr": 795,
      "ew": 796,
      "Ġbeing": 797,
      "ĠEmper": 798,
      "Ġpass": 799,
      "Ġmuch": 800,
      "uz": 801,
      "Ġwr": 802,
      "Ġrep": 803,
      "Ġown": 804,
      "arita": 805,
      "eneral": 806,
      "Ġwhole": 807,
      "ĠMargarita": 808,
      "Ġret": 809,
      "Ġhouse": 810,
      "?âĢĻ": 811,
      "van": 812,
      "ways": 813,
      "Ġgu": 814,
      "olas": 815,
      "Ġgoing": 816,
      "Ġsaw": 817,
      "Ġwell": 818,
      "Ġheard": 819,
      "ĠIvan": 820,
      "icholas": 821,
      "Ġmoment": 822,
      "ished": 823,
      "Ġper": 824,
      "Ġvoice": 825,
      "ath": 826,
      "Ġtell": 827,
      "Ġhu": 828,
      "ĠEmperor": 829,
      "ord": 830,
      "ĠYou": 831,
      "Ġlook": 832,
      "Ġmar": 833,
      "Ġ2": 834,
      "ont": 835,
      "ĠNicholas": 836,
      "pped": 837,
      "les": 838,
      "Ġsold": 839,
      "Ġop": 840,
      "ild": 841,
      "Ġsl": 842,
      "ðŁĺĤ": 843,
      ".âĢĻ": 844,
      "ition": 845,
      "Ġgreat": 846,
      "oth": 847,
      "Ġrepl": 848,
      "tain": 849,
      "Ġnothing": 850,
      "air": 851,
      "ĠNap": 852,
      "Ġneed": 853,
      "Ġalways": 854,
      "ĠPet": 855,
      "Ġ-": 856,
      "oleon": 857,
      "te": 858,
      "atter": 859,
      "iff": 860,
      "igh": 861,
      "Ġsat": 862,
      "sh": 863,
      "we": 864,
      "Ġlol": 865,
      "Ġlast": 866,
      "Ġcommand": 867,
      "Ġcall": 868,
      "Ġthrough": 869,
      "ĠNapoleon": 870,
      "Ġturned": 871,
      "ĠPrincess": 872,
      "ub": 873,
      "Ġexpress": 874,
      "hy": 875,
      "Ġtook": 876,
      "so": 877,
      "ved": 878,
      "denly": 879,
      "day": 880,
      "Ġpleas": 881,
      "Ġcar": 882,
      "Ġyoung": 883,
      "Ġgeneral": 884,
      "up": 885,
      "Ġwom": 886,
      "Ġem": 887,
      "oved": 888,
      "Ġ1": 889,
      "...\"": 890,
      "ken": 891,
      "Ġwat": 892,
      "ling": 893,
      "Ġadd": 894,
      "ready": 895,
      "Ġacc": 896,
      "Ġput": 897,
      "Ġunderstand": 898,
      "Ġalready": 899,
      "Ġreplied": 900,
      "og": 901,
      "Ġsud": 902,
      "ĠKut": 903,
      "Ġonce": 904,
      "Ġdoor": 905,
      "uzov": 906,
      "Ġsil": 907,
      "Ġtake": 908,
      "Ġke": 909,
      "Ġcle": 910,
      "owed": 911,
      "ĠKutuzov": 912,
      "Ġshout": 913,
      "ik": 914,
      "ner": 915,
      "Ġthough": 916,
      "less": 917,
      "Ġob": 918,
      "Ġwhy": 919,
      "ations": 920,
      "Ġte": 921,
      "ili": 922,
      "Ġbel": 923,
      "ark": 924,
      "ens": 925,
      "ĠWhat": 926,
      "Ġknew": 927,
      "Ġhands": 928,
      "oke": 929,
      "Ġ...": 930,
      "Ġsle": 931,
      "aw": 932,
      "Ġhaving": 933,
      "Ġwar": 934,
      "ĠThey": 935,
      "ained": 936,
      "Ġwords": 937,
      "Ġche": 938,
      "ski": 939,
      "Ġsuddenly": 940,
      "de": 941,
      "hes": 942,
      "Ġbatt": 943,
      "Ġeverything": 944,
      "ult": 945,
      "aster": 946,
      "Ġnight": 947,
      "ced": 948,
      "Ġhor": 949,
      "Ġcour": 950,
      "xt": 951,
      "ason": 952,
      "ully": 953,
      "Ġtold": 954,
      "Ġround": 955,
      "Ġlooking": 956,
      "....": 957,
      "ched": 958,
      "Ġpres": 959,
      "ook": 960,
      "Ġfell": 961,
      "Ġmake": 962,
      "Ġquest": 963,
      "ne": 964,
      "vers": 965,
      "ering": 966,
      "ĠĠĠ": 967,
      "ER": 968,
      "sw": 969,
      "khov": 970,
      "Ġcap": 971,
      "Ġwhile": 972,
      "ank": 973,
      "med": 974,
      "ĠRussian": 975,
      "Ġlist": 976,
      "ĠðŁĺĤ": 977,
      "lp": 978,
      "ody": 979,
      "ange": 980,
      "What": 981,
      "Ġfeeling": 982,
      "Ġansw": 983,
      "ief": 984,
      "Ġplace": 985,
      "cept": 986,
      "ross": 987,
      "Ġend": 988,
      "Ġfriend": 989,
      "ict": 990,
      "Ġquite": 991,
      "Ġsmile": 992,
      "Ġac": 993,
      "Ġdiff": 994,
      "Ġpers": 995,
      "Ġbo": 996,
      "Ġmight": 997,
      "Ġalso": 998,
      "Ġanything": 999,
      "onya": 1000,
      "Ġconf": 1001,
      "Ġmor": 1002,
      "Ġmost": 1003,
      "ating": 1004,
      "ves": 1005,
      "hind": 1006,
      "Ġcr": 1007,
      "Ġfore": 1008,
      "You": 1009,
      "iers": 1010,
      "enis": 1011,
      "ma": 1012,
      "Ġofficer": 1013,
      "Ġlight": 1014,
      "ears": 1015,
      "ĠWhen": 1016,
      "Ġran": 1017,
      "Ġdist": 1018,
      "Ġwhom": 1019,
      "enisov": 1020,
      "HA": 1021,
      "ret": 1022,
      "Ġsur": 1023,
      "Ġevid": 1024,
      "li": 1025,
      "Ġcor": 1026,
      "ĠThat": 1027,
      "ssible": 1028,
      "The": 1029,
      "get": 1030,
      "Ġinf": 1031,
      "Ġinst": 1032,
      "ared": 1033,
      "ĠSonya": 1034,
      "Ġdoes": 1035,
      "uck": 1036,
      "ower": 1037,
      "Ġfather": 1038,
      "Ġcontin": 1039,
      "fully": 1040,
      "Ġaw": 1041,
      "Ġass": 1042,
      "aught": 1043,
      "ase": 1044,
      "ovich": 1045,
      "Ġwait": 1046,
      "Ġbro": 1047,
      "ĠDenisov": 1048,
      "Yes": 1049,
      "Ġ#": 1050,
      "ised": 1051,
      "Ġfront": 1052,
      "arly": 1053,
      "Ġyet": 1054,
      "irect": 1055,
      "Ġcat": 1056,
      "ovna": 1057,
      "Ġseen": 1058,
      "'re": 1059,
      "Ġyes": 1060,
      "ib": 1061,
      "Ġdr": 1062,
      "Ġstood": 1063,
      "Ġsmil": 1064,
      "ince": 1065,
      "Ġplay": 1066,
      "ip": 1067,
      "Ġhist": 1068,
      "ever": 1069,
      "Ġter": 1070,
      "iness": 1071,
      "Ġside": 1072,
      "Ġbehind": 1073,
      "ool": 1074,
      "Ġreally": 1075,
      "ĠSt": 1076,
      "Ġvis": 1077,
      "irl": 1078,
      "ail": 1079,
      "aking": 1080,
      "ĠBor": 1081,
      "itting": 1082,
      "Ġbattle": 1083,
      "ought": 1084,
      "ening": 1085,
      "Ġdone": 1086,
      "ĠAt": 1087,
      "ond": 1088,
      "Ġocc": 1089,
      "Ġgave": 1090,
      "ching": 1091,
      "And": 1092,
      "Ġwind": 1093,
      "ows": 1094,
      "Ġel": 1095,
      "Ġherself": 1096,
      "Well": 1097,
      "Ġsound": 1098,
      "Ġmay": 1099,
      "Ġinv": 1100,
      "Ġsw": 1101,
      "Ġdra": 1102,
      "ĠBe": 1103,
      "int": 1104,
      "Ġfind": 1105,
      "Ġlo": 1106,
      "ical": 1107,
      "Ġset": 1108,
      "Ġdear": 1109,
      "ush": 1110,
      "iet": 1111,
      "ĠðŁ¤": 1112,
      "ĠCount": 1113,
      "iment": 1114,
      "Ġref": 1115,
      "owing": 1116,
      "Ġrel": 1117,
      "Ġorder": 1118,
      "Ġcontinu": 1119,
      "TER": 1120,
      "ides": 1121,
      "ired": 1122,
      "Ġmove": 1123,
      "Ġsoon": 1124,
      "Ġfoll": 1125,
      "ĠThis": 1126,
      "ately": 1127,
      "Ġdec": 1128,
      "ined": 1129,
      "Ġrece": 1130,
      "ĠDol": 1131,
      "ka": 1132,
      "ator": 1133,
      "ither": 1134,
      "Ġstart": 1135,
      "Ġwork": 1136,
      "Ġsoldiers": 1137,
      "Ġmorning": 1138,
      "Ġaff": 1139,
      "ĠGod": 1140,
      "Ġfin": 1141,
      "Ġinter": 1142,
      "ĠCHA": 1143,
      "aring": 1144,
      "ĠThere": 1145,
      "Ġcountess": 1146,
      "Ġsupp": 1147,
      "Ġgirl": 1148,
      "ĠCHAP": 1149,
      "osition": 1150,
      "Ġblack": 1151,
      "ĠCHAPTER": 1152,
      "ushed": 1153,
      "ants": 1154,
      "Ġreal": 1155,
      "¸ı": 1156,
      "ï¸ı": 1157,
      "Ġins": 1158,
      "Ġrest": 1159,
      "Ġaround": 1160,
      "the": 1161,
      "ĠU": 1162,
      "Ġâ": 1163,
      "Ġwife": 1164,
      "ĠHis": 1165,
      "Ġtoward": 1166,
      "Ġthree": 1167,
      "Ġread": 1168,
      "cond": 1169,
      "ee": 1170,
      "ention": 1171,
      "ounded": 1172,
      "Ġcried": 1173,
      "ĠNik": 1174,
      "Ġadv": 1175,
      "ho": 1176,
      "ual": 1177,
      "Ġsent": 1178,
      "ream": 1179,
      "mer": 1180,
      "ense": 1181,
      "Ġkind": 1182,
      "oud": 1183,
      "Ġgive": 1184,
      "ute": 1185,
      "Ġwhite": 1186,
      "Ġremem": 1187,
      "Ġthings": 1188,
      "Ġprince": 1189,
      "'ve": 1190,
      "Ġfre": 1191,
      "ump": 1192,
      "Ġtalk": 1193,
      "Ġquestion": 1194,
      "ix": 1195,
      "Ġchild": 1196,
      "ized": 1197,
      "Ġprincess": 1198,
      "No": 1199,
      "But": 1200,
      "cur": 1201,
      "Ġsim": 1202,
      "Ġdress": 1203,
      "Ġhorse": 1204,
      "lex": 1205,
      "Ġwoman": 1206,
      "Ġcrow": 1207,
      "Ġmean": 1208,
      "Ġbri": 1209,
      "Ġfam": 1210,
      "ian": 1211,
      "Ġang": 1212,
      "Ġboth": 1213,
      "okhov": 1214,
      "Ġreturn": 1215,
      "Ġsto": 1216,
      "used": 1217,
      "Ġevidently": 1218,
      "ents": 1219,
      "ĠSo": 1220,
      "gg": 1221,
      "ible": 1222,
      "uring": 1223,
      "Ġtable": 1224,
      "Ġstand": 1225,
      "Ġvisit": 1226,
      "part": 1227,
      "Ġhome": 1228,
      "ertain": 1229,
      "Ġfound": 1230,
      "Ġfire": 1231,
      "aces": 1232,
      "Ġsecond": 1233,
      "Ġsub": 1234,
      "Ġsaying": 1235,
      "Ġothers": 1236,
      "ably": 1237,
      "aving": 1238,
      "eared": 1239,
      "ars": 1240,
      "ĠDolokhov": 1241,
      "ĠFr": 1242,
      "Ġcrowd": 1243,
      "Ġdirect": 1244,
      "not": 1245,
      "osed": 1246,
      "Ġmany": 1247,
      "Ġperson": 1248,
      "Ġdef": 1249,
      "Ġes": 1250,
      "ene": 1251,
      "It": 1252,
      "iously": 1253,
      "ĠðŁĴ": 1254,
      "Ġexpression": 1255,
      "Ġhelp": 1256,
      "Ġ*": 1257,
      "Ġsitting": 1258,
      "Ġpa": 1259,
      "Ġreason": 1260,
      "Ġleg": 1261,
      "Ġletter": 1262,
      "Ġposition": 1263,
      "Ġnext": 1264,
      "Ġbetter": 1265,
      "Ġbes": 1266,
      "Ġcur": 1267,
      "Ġwhis": 1268,
      "Ġrec": 1269,
      "Ġmaster": 1270,
      "Ġrun": 1271,
      "ater": 1272,
      "ĠWe": 1273,
      "ween": 1274,
      "Ġhal": 1275,
      "erest": 1276,
      "Ġbed": 1277,
      "ets": 1278,
      "Ġdays": 1279,
      "Ġspeak": 1280,
      "Ġconsid": 1281,
      "Ġsleep": 1282,
      "ĠX": 1283,
      "Ġbad": 1284,
      "Ġshouted": 1285,
      "ject": 1286,
      "Ġmind": 1287,
      "ached": 1288,
      "Ġregiment": 1289,
      "Ġ20": 1290,
      "pr": 1291,
      "ĠðŁĳ": 1292,
      "illed": 1293,
      "Ġevening": 1294,
      "Ġalone": 1295,
      "ield": 1296,
      "ĠAnna": 1297,
      "ĠHow": 1298,
      "Ġcommander": 1299,
      "ake": 1300,
      "Ġ&": 1301,
      "ial": 1302,
      "Ġson": 1303,
      "Ġmin": 1304,
      "ĠAs": 1305,
      "Ġdark": 1306,
      "Ġtaken": 1307,
      "body": 1308,
      "ured": 1309,
      "wing": 1310,
      "Ġcalled": 1311,
      "Ġsince": 1312,
      "Ġlau": 1313,
      "Ġbetween": 1314,
      "oun": 1315,
      "Ġcol": 1316,
      "read": 1317,
      "Ġmatter": 1318,
      "Ġind": 1319,
      "ĠTo": 1320,
      "Ġheart": 1321,
      "men": 1322,
      "Ġsk": 1323,
      "ĠWol": 1324,
      "Ġsomeone": 1325,
      "Ġsn": 1326,
      "Ġhard": 1327,
      "Ġrepe": 1328,
      "ĠAf": 1329,
      "Ġglanc": 1330,
      "Ġwal": 1331,
      "ird": 1332,
      "ards": 1333,
      "oney": 1334,
      "Ġfoot": 1335,
      "its": 1336,
      "Ġinc": 1337,
      "lovna": 1338,
      "Ġmo": 1339,
      "Ġagainst": 1340,
      "Ġmon": 1341,
      "Ġever": 1342,
      "Ġalong": 1343,
      "Ġinterest": 1344,
      "Ġanyone": 1345,
      "ĠBoris": 1346,
      "Ġhon": 1347,
      "ĠAll": 1348,
      "Ġexpl": 1349,
      "Ġhum": 1350,
      "Ġenem": 1351,
      "Ġhigh": 1352,
      "ided": 1353,
      "][": 1354,
      "bur": 1355,
      "pected": 1356,
      "Ġhur": 1357,
      "enc": 1358,
      "arm": 1359,
      "Ġpol": 1360,
      "iev": 1361,
      "Ġcontr": 1362,
      "ple": 1363,
      "Ġra": 1364,
      "Ġdev": 1365,
      "selves": 1366,
      "ĠCh": 1367,
      "ison": 1368,
      "ĠThen": 1369,
      "Ġtrying": 1370,
      "Ġ'": 1371,
      "Ġstep": 1372,
      "ific": 1373,
      "gr": 1374,
      "Ġeveryone": 1375,
      "Ġadded": 1376,
      "be": 1377,
      "Ġsing": 1378,
      "ĠBer": 1379,
      "sky": 1380,
      "Ġdro": 1381,
      "Ġelse": 1382,
      "ility": 1383,
      "Ġjo": 1384,
      "Ġroad": 1385,
      "Ġworld": 1386,
      "Ġhors": 1387,
      "ĠIf": 1388,
      "Ġmeet": 1389,
      "Ġtalking": 1390,
      "uc": 1391,
      "ery": 1392,
      "orrow": 1393,
      "ott": 1394,
      "Ġreceiv": 1395,
      "??": 1396,
      "uff": 1397,
      "Ġwon": 1398,
      "Ġball": 1399,
      "Ġred": 1400,
      "erent": 1401,
      "Ġcond": 1402,
      "Oh": 1403,
      "ousand": 1404,
      "Ġserv": 1405,
      "ĠAfter": 1406,
      "app": 1407,
      "ually": 1408,
      "oops": 1409,
      "Ġsmall": 1410,
      "ĠVas": 1411,
      "Ġhappened": 1412,
      "Ġhorses": 1413,
      "ikh": 1414,
      "oub": 1415,
      "Ġdri": 1416,
      "Ġlay": 1417,
      "ĠðŁĻ": 1418,
      "ement": 1419,
      "Ġquick": 1420,
      "Ġhold": 1421,
      "Ġpresent": 1422,
      "Ġthousand": 1423,
      "Ġask": 1424,
      "Ġhappy": 1425,
      "ðŁĺĤðŁĺĤ": 1426,
      "curator": 1427,
      "Ġfew": 1428,
      "Ġwanted": 1429,
      "Ġfar": 1430,
      "Ġfall": 1431,
      "ung": 1432,
      "burg": 1433,
      "ock": 1434,
      "Ġsign": 1435,
      "anged": 1436,
      "Ġcourse": 1437,
      "aughter": 1438,
      "ĠWoland": 1439,
      "Ġfact": 1440,
      "Ġgone": 1441,
      "Ġtroops": 1442,
      "Ġenemy": 1443,
      "Ġbest": 1444,
      "ĠPetya": 1445,
      "aim": 1446,
      "orov": 1447,
      "Ġcoming": 1448,
      "gn": 1449,
      "Ġcamp": 1450,
      "Ġbelie": 1451,
      "most": 1452,
      "Ġmet": 1453,
      "aced": 1454,
      "aps": 1455,
      "Ġmovement": 1456,
      "Ġbus": 1457,
      "Ġpast": 1458,
      "ĠNo": 1459,
      "Ġbecame": 1460,
      "ia": 1461,
      "mb": 1462,
      "ited": 1463,
      "Ġpower": 1464,
      "Ġeff": 1465,
      "Ġste": 1466,
      "oving": 1467,
      "Ġlonger": 1468,
      "Ġterri": 1469,
      "Ġdel": 1470,
      "Ġleave": 1471,
      "Ġtaking": 1472,
      "Ġir": 1473,
      "Ġnotic": 1474,
      "Ġconvers": 1475,
      "Ġdoing": 1476,
      "Ġstopped": 1477,
      "Ġcertain": 1478,
      "Ġfree": 1479,
      "Ġdin": 1480,
      "Ġreco": 1481,
      "urs": 1482,
      "Ġnear": 1483,
      "where": 1484,
      "Ġwish": 1485,
      "Ġshall": 1486,
      "Ġtried": 1487,
      "Ġmoney": 1488,
      "Ġcare": 1489,
      "vel": 1490,
      "Ġbrought": 1491,
      "Ġmil": 1492,
      "Ġhair": 1493,
      "oc": 1494,
      "Ġmer": 1495,
      "icul": 1496,
      "Ġjoy": 1497,
      "uth": 1498,
      "Ġdeath": 1499,
      "Ġabs": 1500,
      "iven": 1501,
      "He": 1502,
      "Ġsad": 1503,
      "ern": 1504,
      "Ġmother": 1505,
      "ĠAlex": 1506,
      "Ġadm": 1507,
      "ĠPeters": 1508,
      "Ġhalf": 1509,
      "unt": 1510,
      "ĠYes": 1511,
      "ged": 1512,
      "Ġname": 1513,
      "Ġgre": 1514,
      "Ġart": 1515,
      "Ġwee": 1516,
      "but": 1517,
      "Ġcross": 1518,
      "Ġmoved": 1519,
      "ĠPetersburg": 1520,
      "bed": 1521,
      "ðŁĴ": 1522,
      "Ġhistor": 1523,
      "Ġless": 1524,
      "ressed": 1525,
      "Ġcold": 1526,
      "ude": 1527,
      "aut": 1528,
      "Ġair": 1529,
      "Ġexc": 1530,
      "aev": 1531,
      "airs": 1532,
      "Ġwindow": 1533,
      "Ġcontinued": 1534,
      "Ġhour": 1535,
      "Ġrap": 1536,
      "ings": 1537,
      "Ġconv": 1538,
      "Ġwhether": 1539,
      "Ġamong": 1540,
      "ĠVasili": 1541,
      "Ġbu": 1542,
      "Ġdet": 1543,
      "olk": 1544,
      "Ġfull": 1545,
      "Ġstru": 1546,
      "Ġrose": 1547,
      "Ġadj": 1548,
      "Ġpassed": 1549,
      "oz": 1550,
      "Ġtoday": 1551,
      "Ġrode": 1552,
      "iver": 1553,
      "ph": 1554,
      "Ġtre": 1555,
      "arge": 1556,
      "Ġentered": 1557,
      "Ġstrange": 1558,
      "ec": 1559,
      "Ġmyself": 1560,
      "Ġturning": 1561,
      "ĠZ": 1562,
      "Ġwin": 1563,
      "Ġmid": 1564,
      "Ġkiss": 1565,
      "Ġtimes": 1566,
      "Ġsure": 1567,
      "Ġquiet": 1568,
      "Ġbegin": 1569,
      "oroviev": 1570,
      "cle": 1571,
      "ex": 1572,
      "Ġsqu": 1573,
      "oul": 1574,
      "Ġcha": 1575,
      "Ġmiss": 1576,
      "ðŁı": 1577,
      "Ġsuff": 1578,
      "Ġarri": 1579,
      "Ġbit": 1580,
      "Ġhear": 1581,
      "als": 1582,
      "Ġstud": 1583,
      "Ġthemselves": 1584,
      "Ġofficers": 1585,
      "Ġperf": 1586,
      "Ġanswered": 1587,
      "Ġgall": 1588,
      "Ġdoct": 1589,
      "ĠKoroviev": 1590,
      "Ġsurpr": 1591,
      "fort": 1592,
      "Ġapart": 1593,
      "ister": 1594,
      "...âĢĻ": 1595,
      "Ġarms": 1596,
      "ices": 1597,
      "Ġappro": 1598,
      "Ġboy": 1599,
      "Ġguest": 1600,
      "Ġkeep": 1601,
      "Ġdrawing": 1602,
      "ts": 1603,
      "Ġcause": 1604,
      "peri": 1605,
      "ug": 1606,
      "Ġlater": 1607,
      "antly": 1608,
      "Ġprocurator": 1609,
      "Ġcompan": 1610,
      "atole": 1611,
      "Ġmus": 1612,
      "Ġstay": 1613,
      "Ġimport": 1614,
      "Ġreceived": 1615,
      "Ġbar": 1616,
      "Ġeach": 1617,
      "Ġrid": 1618,
      "Ġshit": 1619,
      "Ġshow": 1620,
      "Ġprison": 1621,
      "Ġimpo": 1622,
      "Ġitself": 1623,
      "ĠAnatole": 1624,
      "Ġ3": 1625,
      "ingly": 1626,
      "Ġduring": 1627,
      "Ġready": 1628,
      "ĠAr": 1629,
      "Ġunderstood": 1630,
      "Ġdifferent": 1631,
      "ois": 1632,
      "Ġgaz": 1633,
      "Ġsun": 1634,
      "Ġnews": 1635,
      "res": 1636,
      "Ġcry": 1637,
      "Ġspoke": 1638,
      "Ġca": 1639,
      "Ġcal": 1640,
      "Ġlad": 1641,
      "Ġnecess": 1642,
      "agin": 1643,
      "Ġtoget": 1644,
      "Ġext": 1645,
      "iew": 1646,
      "Ġremember": 1647,
      "Ġconversation": 1648,
      "Ġtogether": 1649,
      "Ah": 1650,
      "ote": 1651,
      "overed": 1652,
      "ĠOne": 1653,
      "Ġkept": 1654,
      "Ġbeside": 1655,
      "Ġ202": 1656,
      "ash": 1657,
      "ased": 1658,
      "Ġgiven": 1659,
      "anger": 1660,
      "Ġpossible": 1661,
      "Ġlost": 1662,
      "cially": 1663,
      "oss": 1664,
      "that": 1665,
      "Ġwounded": 1666,
      "Ġburn": 1667,
      "ĠWith": 1668,
      "Ġfellow": 1669,
      "band": 1670,
      "ron": 1671,
      "Ġbre": 1672,
      "omp": 1673,
      "Ġalmost": 1674,
      "ration": 1675,
      "Ġpost": 1676,
      "Ġtri": 1677,
      "raid": 1678,
      "Ġwomen": 1679,
      "ned": 1680,
      "ically": 1681,
      "Ġyear": 1682,
      "Ġyourself": 1683,
      "Ġsoldier": 1684,
      "medi": 1685,
      "Ġimpossible": 1686,
      "Ġopp": 1687,
      "Ġbrother": 1688,
      "Ġflo": 1689,
      "uk": 1690,
      "Ġhus": 1691,
      "Ġcannot": 1692,
      "Ġseeing": 1693,
      "Ġprom": 1694,
      "Ġsilent": 1695,
      "Ġsoul": 1696,
      "Ġyears": 1697,
      "Ġchair": 1698,
      "Ġtill": 1699,
      "Ġforg": 1700,
      "Ġprep": 1701,
      "Ġremained": 1702,
      "Ġorders": 1703,
      "Ġterrible": 1704,
      "olkon": 1705,
      "ndred": 1706,
      "Ġnor": 1707,
      "Ġbeaut": 1708,
      "Ġyea": 1709,
      "Ġshort": 1710,
      "Ġgetting": 1711,
      "Ġaction": 1712,
      "Ġopened": 1713,
      "II": 1714,
      "ces": 1715,
      "Ġill": 1716,
      "Ġwished": 1717,
      "Ġlit": 1718,
      "Ġstra": 1719,
      "chief": 1720,
      "ĠHere": 1721,
      "ilate": 1722,
      "umb": 1723,
      "ĠNikol": 1724,
      "tered": 1725,
      "Ġsec": 1726,
      "Ġtrue": 1727,
      "Ġdidn": 1728,
      "Ġpret": 1729,
      "ĠIvanovich": 1730,
      "Ġlaugh": 1731,
      "),": 1732,
      "ising": 1733,
      "Ġlow": 1734,
      "Ġlaw": 1735,
      "Ġeither": 1736,
      "ize": 1737,
      "Ġthinking": 1738,
      "Ġappeared": 1739,
      "Ġwater": 1740,
      "Ġest": 1741,
      "ino": 1742,
      "atur": 1743,
      "room": 1744,
      "Ġimmedi": 1745,
      "Ġreply": 1746,
      "Ġ[": 1747,
      "Ġvill": 1748,
      "Ġhundred": 1749,
      "Ġopen": 1750,
      "Ġadjut": 1751,
      "Ġhusband": 1752,
      "ĠPilate": 1753,
      "ĠMad": 1754,
      "Ġsever": 1755,
      "Ġpeas": 1756,
      "ures": 1757,
      "Ġdisp": 1758,
      "Ġbelieve": 1759,
      "Ġnoticed": 1760,
      "imes": 1761,
      "Ġforward": 1762,
      "Ġwhisp": 1763,
      "Ġ2025": 1764,
      "Why": 1765,
      "Ġgent": 1766,
      "ĠPav": 1767,
      "con": 1768,
      "otion": 1769,
      "Ġexcl": 1770,
      "Ġglass": 1771,
      "Ġdinner": 1772,
      "ians": 1773,
      "Ġfle": 1774,
      "ĠMy": 1775,
      "Ġabove": 1776,
      "ĠGer": 1777,
      "Ġafraid": 1778,
      "aff": 1779,
      "Ġrepeated": 1780,
      "Ġbur": 1781,
      "Ġfour": 1782,
      "Ġhope": 1783,
      "olkonski": 1784,
      "Ġcity": 1785,
      "Ġpain": 1786,
      "idly": 1787,
      "Ġchief": 1788,
      "cious": 1789,
      "dle": 1790,
      "hh": 1791,
      "Ġph": 1792,
      "Ġclose": 1793,
      "ius": 1794,
      "Ġtears": 1795,
      "Ġlarge": 1796,
      "lect": 1797,
      "ots": 1798,
      "pecially": 1799,
      "ĠEvery": 1800,
      "Ġspeaking": 1801,
      "Ġhuss": 1802,
      "Ġsmiled": 1803,
      "Ġimmediately": 1804,
      "Ġna": 1805,
      "riage": 1806,
      "Ġstanding": 1807,
      "Ġrecogn": 1808,
      "Ġfield": 1809,
      "enty": 1810,
      "Ġformer": 1811,
      "Ġused": 1812,
      "Ġclear": 1813,
      "Ġfamily": 1814,
      "Ġdoctor": 1815,
      "How": 1816,
      "mit": 1817,
      "Ġten": 1818,
      "Ġexce": 1819,
      "Ġhuman": 1820,
      "ishing": 1821,
      "Ġfaces": 1822,
      "Ġdest": 1823,
      "Ġsoci": 1824,
      "Ġlive": 1825,
      "Ġfright": 1826,
      "Ġcomple": 1827,
      "'d": 1828,
      "ring": 1829,
      "head": 1830,
      "Ġpur": 1831,
      "irt": 1832,
      "ĠNot": 1833,
      "pping": 1834,
      "Ġtry": 1835,
      "ten": 1836,
      "Ġtou": 1837,
      "ates": 1838,
      "Ġcir": 1839,
      "vern": 1840,
      "Ġlear": 1841,
      "Ġquickly": 1842,
      "to": 1843,
      "Ġbig": 1844,
      "Ġmist": 1845,
      "Ġthird": 1846,
      "Ġpap": 1847,
      "ĠAust": 1848,
      "Ġknown": 1849,
      "ĠFor": 1850,
      "Ġglad": 1851,
      "Ġreport": 1852,
      "Ġanswer": 1853,
      "Ġgallop": 1854,
      "Ġseveral": 1855,
      "Ġinqu": 1856,
      "Ġuse": 1857,
      "ode": 1858,
      "Ġcoll": 1859,
      "Ġwaiting": 1860,
      "ĠAlexand": 1861,
      "Ġwhispered": 1862,
      "ef": 1863,
      "Ġmere": 1864,
      "ages": 1865,
      "Ġleast": 1866,
      "Ġfear": 1867,
      "rupt": 1868,
      "ych": 1869,
      "isf": 1870,
      "Ġtom": 1871,
      "Ġpat": 1872,
      "Ġgun": 1873,
      "Ġexpect": 1874,
      "ĠJust": 1875,
      "ception": 1876,
      "ald": 1877,
      "du": 1878,
      "Ġide": 1879,
      "ĠHel": 1880,
      "Ġpoin": 1881,
      "Ġsmiling": 1882,
      "use": 1883,
      "Ġheld": 1884,
      "agg": 1885,
      "Ġfeet": 1886,
      "ĠFrom": 1887,
      "Ġstraight": 1888,
      "Ġlate": 1889,
      "Ġanim": 1890,
      "ĠWhy": 1891,
      "Ġdisapp": 1892,
      "ection": 1893,
      "Ġglanced": 1894,
      "bo": 1895,
      "ead": 1896,
      "Ġsort": 1897,
      "ety": 1898,
      "alth": 1899,
      "ĠBolkonski": 1900,
      "Ġsoft": 1901,
      "That": 1902,
      "cri": 1903,
      "ats": 1904,
      "Ġreached": 1905,
      "Ġstre": 1906,
      "ters": 1907,
      "ended": 1908,
      "ances": 1909,
      "Ġapartment": 1910,
      "by": 1911,
      "ope": 1912,
      "Ġsel": 1913,
      "Ġexperi": 1914,
      "Ġmaking": 1915,
      "ĠRussia": 1916,
      "inite": 1917,
      "ĠHaving": 1918,
      "ously": 1919,
      "arent": 1920,
      "Ġhonor": 1921,
      "ror": 1922,
      "Ġwall": 1923,
      "ane": 1924,
      "ime": 1925,
      "ĠDo": 1926,
      "acks": 1927,
      "Ġemb": 1928,
      "Ġreturned": 1929,
      "Ġsteps": 1930,
      "Ġexcell": 1931,
      "ches": 1932,
      "Ġut": 1933,
      "Ġsy": 1934,
      "Ġfing": 1935,
      "oned": 1936,
      "Ġtor": 1937,
      "Ġgiv": 1938,
      "Ġeas": 1939,
      "Ġkilled": 1940,
      "ively": 1941,
      "Ġgentle": 1942,
      "Ġce": 1943,
      "Ġcase": 1944,
      "Ġlma": 1945,
      "Ġgame": 1946,
      "rink": 1947,
      "els": 1948,
      "Ġprev": 1949,
      "Ġbrid": 1950,
      "Ġespecially": 1951,
      "Ġve": 1952,
      "Ġfight": 1953,
      "Ġrub": 1954,
      "ĠNe": 1955,
      "outh": 1956,
      "pend": 1957,
      "ĠCoss": 1958,
      "Ġpoint": 1959,
      "Ġfollowed": 1960,
      "ello": 1961,
      "Ġtrans": 1962,
      "Ġeye": 1963,
      "Ġdisc": 1964,
      "Ġexclaim": 1965,
      "eng": 1966,
      "Ġtown": 1967,
      "Ġmut": 1968,
      "Ġstate": 1969,
      "Ġknows": 1970,
      "Ġoccup": 1971,
      "Ġmilit": 1972,
      "anging": 1973,
      "Ġground": 1974,
      "Ġwatch": 1975,
      "ms": 1976,
      "Ġstop": 1977,
      "Ġexist": 1978,
      "aged": 1979,
      "Ġpeace": 1980,
      "Ġhistory": 1981,
      "Ġmoon": 1982,
      "Ġcomplete": 1983,
      "ĠHelene": 1984,
      "Th": 1985,
      "Ġbody": 1986,
      "oof": 1987,
      "aint": 1988,
      "agration": 1989,
      "empt": 1990,
      "Ġsays": 1991,
      "Ġstrong": 1992,
      "Ġbright": 1993,
      "Ġnecessary": 1994,
      "Ġcart": 1995,
      "Ġlif": 1996,
      "ĠSh": 1997,
      "ressing": 1998,
      "ĠRostovs": 1999,
      "Ġvoices": 2000,
      "Ġregard": 2001,
      "Ġlistened": 2002,
      "Ġstarted": 2003,
      "Ġfloor": 2004,
      "Ġsecret": 2005,
      "Ġadjutant": 2006,
      "ĠPavlovna": 2007,
      "Ġself": 2008,
      "me": 2009,
      "oll": 2010,
      "Ġdaughter": 2011,
      "Ġoften": 2012,
      "ĠNow": 2013,
      "Ġsmoke": 2014,
      "reng": 2015,
      "Ġdecided": 2016,
      "Ġraised": 2017,
      "Ġholding": 2018,
      "Ġtomorrow": 2019,
      "ply": 2020,
      "Ġed": 2021,
      "Ġbook": 2022,
      "iting": 2023,
      "Ġfur": 2024,
      "utes": 2025,
      "amed": 2026,
      "Ġann": 2027,
      "Ġsho": 2028,
      "Ġprof": 2029,
      "ðŁĺŃ": 2030,
      "bably": 2031,
      "Ġav": 2032,
      "ouri": 2033,
      "Ġfine": 2034,
      "Ġline": 2035,
      "ution": 2036,
      "Ġstaff": 2037,
      "Ġbecome": 2038,
      "Ġacross": 2039,
      "Ġtone": 2040,
      "Ġaim": 2041,
      "Ġsides": 2042,
      "ĠAz": 2043,
      "ĠBagration": 2044,
      "umn": 2045,
      "hev": 2046,
      "Ġmem": 2047,
      "Ġplan": 2048,
      "Ġdesp": 2049,
      "ency": 2050,
      "Ġimportant": 2051,
      "Ġexclaimed": 2052,
      "Ġfig": 2053,
      "arch": 2054,
      "Ġpri": 2055,
      "Ġstreng": 2056,
      "iful": 2057,
      "aining": 2058,
      "rying": 2059,
      "Ġtwenty": 2060,
      "Ġbring": 2061,
      "Ġ18": 2062,
      "Ġstruck": 2063,
      "bit": 2064,
      "ident": 2065,
      "Ġforget": 2066,
      "Ġplease": 2067,
      "Ġyeah": 2068,
      "wh": 2069,
      "Ġsor": 2070,
      "Ġfa": 2071,
      "Ġdem": 2072,
      "!!!": 2073,
      "azello": 2074,
      "haps": 2075,
      "yond": 2076,
      "Ġok": 2077,
      "Ġunex": 2078,
      "Ġattention": 2079,
      "Ġ...âĢĻ": 2080,
      "Ġservice": 2081,
      "ities": 2082,
      "Ġlead": 2083,
      "ĠOnly": 2084,
      "Ġbusiness": 2085,
      "ics": 2086,
      "Ġstory": 2087,
      "Ġforce": 2088,
      "ored": 2089,
      "ĠWell": 2090,
      "Ġrespect": 2091,
      "Ġacqu": 2092,
      "Ġpale": 2093,
      "che": 2094,
      "erv": 2095,
      "Ġdream": 2096,
      "Ġpay": 2097,
      "oooo": 2098,
      "ĠðŁį": 2099,
      "ction": 2100,
      "Ġdog": 2101,
      "Ġfresh": 2102,
      "Ġrunning": 2103,
      "Ġstudy": 2104,
      "ĠAzazello": 2105,
      "itions": 2106,
      "Ġfun": 2107,
      "Ġmoving": 2108,
      "Ġheav": 2109,
      "Ġdeep": 2110,
      "Ġexp": 2111,
      "ĠðŁĺŃ": 2112,
      "ĠGu": 2113,
      "Ġthoughts": 2114,
      "Ġpleasure": 2115,
      "Ġvillage": 2116,
      "bs": 2117,
      "ision": 2118,
      "Ġfix": 2119,
      "Ġdam": 2120,
      "Ġdiv": 2121,
      "Ġled": 2122,
      "Ġlady": 2123,
      "Ġinde": 2124,
      "Ġunt": 2125,
      "Ġdead": 2126,
      "Ġsum": 2127,
      "elle": 2128,
      "abs": 2129,
      "Ġdevil": 2130,
      "no": 2131,
      "Ġdoub": 2132,
      "Ġgrew": 2133,
      "ĠMa": 2134,
      "olen": 2135,
      "Ġsend": 2136,
      "Ġlips": 2137,
      "Ġcoat": 2138,
      "ĠRussians": 2139,
      "lioz": 2140,
      "ĠNikolaev": 2141,
      "Ġmerely": 2142,
      "kn": 2143,
      "ins": 2144,
      "onna": 2145,
      "ashed": 2146,
      "ĠðŁİ": 2147,
      "Ġblood": 2148,
      "Ġpray": 2149,
      "Ġparticul": 2150,
      "Ġsounds": 2151,
      "ushka": 2152,
      "ĠAlexander": 2153,
      "fa": 2154,
      "lic": 2155,
      "Ġable": 2156,
      "ining": 2157,
      "Ġhall": 2158,
      "Ġconc": 2159,
      "Ġvar": 2160,
      "Ġimag": 2161,
      "Ġcountry": 2162,
      "Ġlegs": 2163,
      "df": 2164,
      "side": 2165,
      "Ġhast": 2166,
      "Ġcut": 2167,
      "Ġgard": 2168,
      "olute": 2169,
      "ĠðŁļ": 2170,
      "ĠSome": 2171,
      "emois": 2172,
      "Ġliving": 2173,
      "Ġchanged": 2174,
      "Ġappear": 2175,
      "Ġhappiness": 2176,
      "Ġopin": 2177,
      "Ġslight": 2178,
      "Ġcalm": 2179,
      "emoiselle": 2180,
      "bib": 2181,
      "Ġsit": 2182,
      "Ġloud": 2183,
      "Ġsuc": 2184,
      "Ġvict": 2185,
      "Ġweak": 2186,
      "Ġquar": 2187,
      "Ġago": 2188,
      "Ġsilence": 2189,
      "ught": 2190,
      "Ġbare": 2191,
      "Ġcovered": 2192,
      "Ġru": 2193,
      "ivity": 2194,
      "Ġremar": 2195,
      "Ġretreat": 2196,
      "ĠBerlioz": 2197,
      "uss": 2198,
      "Ġdrew": 2199,
      "Ġnum": 2200,
      "Ġshowed": 2201,
      "ĠMademoiselle": 2202,
      "ey": 2203,
      "light": 2204,
      "par": 2205,
      "pdf": 2206,
      "hem": 2207,
      "atych": 2208,
      "Ġlot": 2209,
      "Ġloved": 2210,
      "ĠðŁĲ": 2211,
      "Ġtruth": 2212,
      "ments": 2213,
      "Ġsometimes": 2214,
      "Ġusual": 2215,
      "Ġshoulders": 2216,
      "Ġevents": 2217,
      "Ġflew": 2218,
      "Ġfrightened": 2219,
      "If": 2220,
      "rad": 2221,
      "oup": 2222,
      "anor": 2223,
      "Ġlying": 2224,
      "iform": 2225,
      "Ġconst": 2226,
      "Ġexec": 2227,
      "Ġaband": 2228,
      "Ġordered": 2229,
      "lpatych": 2230,
      "Ġinterrupt": 2231,
      "Ġrememb": 2232,
      "Ġsociety": 2233,
      "Ġlmao": 2234,
      "Ġbridge": 2235,
      "Ġunexpected": 2236,
      "We": 2237,
      "ract": 2238,
      "ta": 2239,
      "Ġbreat": 2240,
      "Ġmouth": 2241,
      "Ġbeyond": 2242,
      "eth": 2243,
      "ðŁĻ": 2244,
      "ĠWh": 2245,
      "Ġarr": 2246,
      "Ġgold": 2247,
      "Ġuniform": 2248,
      "Ġprobably": 2249,
      "Ġsorry": 2250,
      "com": 2251,
      "Ġhig": 2252,
      "Ġdi": 2253,
      "ĠAlpatych": 2254,
      "ĠBal": 2255,
      "ĠðŁĵ": 2256,
      "Ġprop": 2257,
      "Ġsimply": 2258,
      "Ġoh": 2259,
      "Ġfav": 2260,
      "enne": 2261,
      "Ġdut": 2262,
      "ĠTw": 2263,
      "riev": 2264,
      "ĠMikh": 2265,
      "Ġneck": 2266,
      "Ġview": 2267,
      "Ġeverybody": 2268,
      "Ġresp": 2269,
      "Ġwrong": 2270,
      "known": 2271,
      "ĠMikhay": 2272,
      "old": 2273,
      "Ġhill": 2274,
      "Ġhung": 2275,
      "irty": 2276,
      "itten": 2277,
      "Ġforeign": 2278,
      "ĠNikanor": 2279,
      "Ġeffort": 2280,
      "Ġcent": 2281,
      "arily": 2282,
      "Ġpor": 2283,
      "icult": 2284,
      "Ġrather": 2285,
      "ĠSm": 2286,
      "Ġwhose": 2287,
      "Ġgovern": 2288,
      "Ġchange": 2289,
      "wards": 2290,
      "Ġaccount": 2291,
      "Ġmonth": 2292,
      "Ġsingle": 2293,
      "Ġgiving": 2294,
      "Ġstrength": 2295,
      "There": 2296,
      "der": 2297,
      "Ġwood": 2298,
      "Ġgonna": 2299,
      "chin": 2300,
      "acing": 2301,
      "apart": 2302,
      "ĠDmit": 2303,
      "Ġagit": 2304,
      "ĠOh": 2305,
      "Ġoccur": 2306,
      "Ġfreed": 2307,
      "ĠMikhaylovna": 2308,
      "itiz": 2309,
      "Ġfif": 2310,
      "leep": 2311,
      "tern": 2312,
      "ĠBouri": 2313,
      "ĠOr": 2314,
      "Ġspir": 2315,
      "Ġprov": 2316,
      "Ġobs": 2317,
      "Ġpresence": 2318,
      "Ġcontrary": 2319,
      "ĠBourienne": 2320,
      "aign": 2321,
      "Ġwo": 2322,
      "ital": 2323,
      "Ġasking": 2324,
      "ĠPro": 2325,
      "acked": 2326,
      "roy": 2327,
      "ains": 2328,
      "Ġenough": 2329,
      "cial": 2330,
      "Ġangry": 2331,
      "Ġminutes": 2332,
      "Ġ4": 2333,
      "Ġought": 2334,
      "onapart": 2335,
      "Ġnice": 2336,
      "ĠAl": 2337,
      "Ġchar": 2338,
      "ĠKar": 2339,
      "Ġeng": 2340,
      "Ġactually": 2341,
      "Ġshouting": 2342,
      "Ġcorner": 2343,
      "Ġconsider": 2344,
      "ny": 2345,
      "Ġ5": 2346,
      "Ġmag": 2347,
      "vere": 2348,
      "terday": 2349,
      "Ġmeans": 2350,
      "itted": 2351,
      "Ġfirm": 2352,
      "aching": 2353,
      "Ġconscious": 2354,
      "Ġfriends": 2355,
      "Ġchildren": 2356,
      "cul": 2357,
      "Ġcav": 2358,
      "Ġmad": 2359,
      "Ġdanger": 2360,
      "ĠRostop": 2361,
      "Ġhappen": 2362,
      "Ġlisten": 2363,
      "iety": 2364,
      "Ġkissed": 2365,
      "Ġexcellency": 2366,
      "Ġtea": 2367,
      "ink": 2368,
      "Ġsol": 2369,
      "Ġswe": 2370,
      "Ġsister": 2371,
      "akes": 2372,
      "Ġresult": 2373,
      "Ġcampaign": 2374,
      "Ġcompany": 2375,
      "Ġbeautiful": 2376,
      "Ġgarden": 2377,
      "!...": 2378,
      "IN": 2379,
      "Ġtem": 2380,
      "Ġsix": 2381,
      "ĠHer": 2382,
      "Ġwrote": 2383,
      "Ġexpressed": 2384,
      "Ġlistening": 2385,
      "Ġpretty": 2386,
      "Ġnumber": 2387,
      "Ġremembered": 2388,
      "ĠRostopchin": 2389,
      "Ġhat": 2390,
      "Ġhop": 2391,
      "Ġcitiz": 2392,
      "ĠLi": 2393,
      "Ġblue": 2394,
      "izing": 2395,
      "Ġcarried": 2396,
      "Ġquestions": 2397,
      "Ġdifficult": 2398,
      "Ġaffairs": 2399,
      "Ġmeaning": 2400,
      "Ġconsidered": 2401,
      "Ġlaughing": 2402,
      "onaparte": 2403,
      "iant": 2404,
      "land": 2405,
      "Ġid": 2406,
      "Ġbab": 2407,
      "ĠðŁĮ": 2408,
      "osp": 2409,
      "Ġinform": 2410,
      "oom": 2411,
      "Ġpull": 2412,
      "Ġear": 2413,
      "set": 2414,
      "tering": 2415,
      "Ġseems": 2416,
      "Ġmeeting": 2417,
      "Ġmiddle": 2418,
      "Ġfreedom": 2419,
      "how": 2420,
      "eren": 2421,
      "ĠBr": 2422,
      "Ġfrown": 2423,
      "Ġkill": 2424,
      "Ġclosed": 2425,
      "Ġattack": 2426,
      "Ġdoesn": 2427,
      "Ġwalked": 2428,
      "Ġhistorians": 2429,
      "ĠAustri": 2430,
      "ale": 2431,
      "ient": 2432,
      "Ġsick": 2433,
      "Ġfive": 2434,
      "asp": 2435,
      "Ġequ": 2436,
      "Ġhaha": 2437,
      "ushing": 2438,
      "anced": 2439,
      "Ġhandsome": 2440,
      "aren": 2441,
      "oly": 2442,
      "onel": 2443,
      "Ġmis": 2444,
      "Ġmention": 2445,
      "Ġpal": 2446,
      "Ġanx": 2447,
      "rily": 2448,
      "usion": 2449,
      "osing": 2450,
      "arth": 2451,
      "Ġunable": 2452,
      "Ġagree": 2453,
      "like": 2454,
      "Ġsubject": 2455,
      "Ġpeasants": 2456,
      "und": 2457,
      "Ġsight": 2458,
      "ĠIs": 2459,
      "Ġasleep": 2460,
      "chool": 2461,
      "Ġleaving": 2462,
      "Ġknowing": 2463,
      "Ġspo": 2464,
      "....\"": 2465,
      "Ġweek": 2466,
      "Ġinterrupted": 2467,
      "aven": 2468,
      "bing": 2469,
      "eg": 2470,
      "Ġcand": 2471,
      "ster": 2472,
      "ented": 2473,
      "Ġupon": 2474,
      "Ġjump": 2475,
      "Ġsomewhere": 2476,
      "Ġclearly": 2477,
      "Ġfinished": 2478,
      "Ġcolumn": 2479,
      "Ġsignific": 2480,
      "Ġprisoners": 2481,
      "atch": 2482,
      "ative": 2483,
      "Ġbor": 2484,
      "eness": 2485,
      "Ġla": 2486,
      "Ġsole": 2487,
      "Ġlean": 2488,
      "Ġmaid": 2489,
      "Ġthank": 2490,
      "Ġcarriage": 2491,
      "Ġtender": 2492,
      "Ġcourt": 2493,
      "mp": 2494,
      "Ġhot": 2495,
      "ouble": 2496,
      "enced": 2497,
      "Ġones": 2498,
      "Ġform": 2499,
      "une": 2500,
      "Ġunknown": 2501,
      "ĠLet": 2502,
      "Ġpoor": 2503,
      "Ġpoet": 2504,
      "Ġmaj": 2505,
      "Ġevent": 2506,
      "Ġbeginning": 2507,
      "ukha": 2508,
      "Ġfixed": 2509,
      "ys": 2510,
      "ĠQ": 2511,
      "icked": 2512,
      "aya": 2513,
      "olunt": 2514,
      "Ġmeant": 2515,
      "Ġaccord": 2516,
      "ĠCountess": 2517,
      "Ġdelight": 2518,
      "Ġsuffering": 2519,
      "Ġmilitary": 2520,
      "Ġopinion": 2521,
      "00": 2522,
      "Ġsal": 2523,
      "Ġur": 2524,
      "alry": 2525,
      "Ġrushed": 2526,
      "essor": 2527,
      "ĠRim": 2528,
      "opa": 2529,
      "tyopa": 2530,
      "ĠðŁ¤Ķ": 2531,
      "Ġesc": 2532,
      "Ġarrived": 2533,
      "Ġidea": 2534,
      "non": 2535,
      "ric": 2536,
      "Ġfly": 2537,
      "ashev": 2538,
      "arr": 2539,
      "Ġland": 2540,
      "antry": 2541,
      "Ġconn": 2542,
      "Ġspent": 2543,
      "Ġactivity": 2544,
      "Ġguess": 2545,
      "Ġpleasant": 2546,
      "ails": 2547,
      "ĠGerman": 2548,
      "Ġwonder": 2549,
      "ĠRimsky": 2550,
      "bin": 2551,
      "dd": 2552,
      "Ġstern": 2553,
      "ames": 2554,
      "ĠHill": 2555,
      "Ġexcept": 2556,
      "Ġvan": 2557,
      "Ġplain": 2558,
      "ĠMarya": 2559,
      "Ġassum": 2560,
      "Ġsett": 2561,
      "Ġreading": 2562,
      "Ġsky": 2563,
      "ĠBalashev": 2564,
      "Ġfavor": 2565,
      "ler": 2566,
      "Ġcou": 2567,
      "ories": 2568,
      "Ġeat": 2569,
      "Ġearth": 2570,
      "Ġstri": 2571,
      "amma": 2572,
      "Ġneare": 2573,
      "Ġneither": 2574,
      "Ġtalked": 2575,
      "Ġinstead": 2576,
      "Ġbroken": 2577,
      "Ġdemand": 2578,
      "eper": 2579,
      "ghed": 2580,
      "rel": 2581,
      "Ġhealth": 2582,
      "Ġund": 2583,
      "ĠðŁĶ": 2584,
      "ĠStyopa": 2585,
      "ĠDon": 2586,
      "Ġunp": 2587,
      "odino": 2588,
      "evit": 2589,
      "ĠUn": 2590,
      "Ġhours": 2591,
      "Ġquietly": 2592,
      "Ġmusic": 2593,
      "Ġladies": 2594,
      "Ġ?": 2595,
      "rif": 2596,
      "ustom": 2597,
      "ĠGo": 2598,
      "Ġgroup": 2599,
      "Ġsatisf": 2600,
      "Ġstreet": 2601,
      "ĠSmolen": 2602,
      "ah": 2603,
      "cise": 2604,
      "inary": 2605,
      "Ġsense": 2606,
      "Ġfuck": 2607,
      "anna": 2608,
      "Ġpar": 2609,
      "Ġgen": 2610,
      "iding": 2611,
      "Ġdeal": 2612,
      "Ġwearing": 2613,
      "ssib": 2614,
      "Ġclo": 2615,
      "Ġparty": 2616,
      "Ġbox": 2617,
      "ĠBorodino": 2618,
      "Ġfinally": 2619,
      "Ġhurried": 2620,
      "Ġeffect": 2621,
      "Ġsurprise": 2622,
      "Ġdestroy": 2623,
      "Ġavo": 2624,
      "My": 2625,
      "ape": 2626,
      "rist": 2627,
      "itude": 2628,
      "Ġinevit": 2629,
      "Ġgate": 2630,
      "Ġstup": 2631,
      "Ġnotice": 2632,
      "Ġisn": 2633,
      "Ġspread": 2634,
      "clock": 2635,
      "Ġcapt": 2636,
      "Ġyesterday": 2637,
      "rievna": 2638,
      "ĠDmitrievna": 2639,
      "Ġcloak": 2640,
      "ging": 2641,
      "ues": 2642,
      "Ġast": 2643,
      "inct": 2644,
      "Ġmass": 2645,
      "Ġmotion": 2646,
      "Ġlatter": 2647,
      "ðŁĳ": 2648,
      "olog": 2649,
      "Ġexpected": 2650,
      "Ġprodu": 2651,
      "ĠVaren": 2652,
      "Ġsurr": 2653,
      "Ġawait": 2654,
      "Ġwhisper": 2655,
      "Ġgreen": 2656,
      "Ġperfect": 2657,
      "Ġgazed": 2658,
      "Ġguns": 2659,
      "Ġcompletely": 2660,
      "Ġcavalry": 2661,
      "ipp": 2662,
      "Ġschool": 2663,
      "Ġtho": 2664,
      "uture": 2665,
      "Ġliked": 2666,
      "unk": 2667,
      "Ġworth": 2668,
      "Ġcannon": 2669,
      "ected": 2670,
      "Ġentr": 2671,
      "Ġgenerals": 2672,
      "Ġexcited": 2673,
      "Ġhussars": 2674,
      "Ġfigure": 2675,
      "ze": 2676,
      "Ġton": 2677,
      "Ġband": 2678,
      "enn": 2679,
      "Ġmess": 2680,
      "Ġpath": 2681,
      "Ġsepar": 2682,
      "ager": 2683,
      "seless": 2684,
      "Ġcompl": 2685,
      "Ġsmo": 2686,
      "!!!!": 2687,
      "onsense": 2688,
      "They": 2689,
      "Ġgalloped": 2690,
      "Ġoccupied": 2691,
      "Ġduty": 2692,
      "ĠSmolensk": 2693,
      "ĠVarenukha": 2694,
      "kov": 2695,
      "min": 2696,
      "zu": 2697,
      "Ġfat": 2698,
      "Ġpie": 2699,
      "ality": 2700,
      "ires": 2701,
      "ĠFrenchman": 2702,
      "Ġspecial": 2703,
      "Ġempt": 2704,
      "Ġwarm": 2705,
      "Ġbuild": 2706,
      "Ġsurprised": 2707,
      "Ġpaper": 2708,
      "Ġdisappeared": 2709,
      "OU": 2710,
      "So": 2711,
      "asion": 2712,
      "ĠAm": 2713,
      "Ġconcl": 2714,
      "Ġwritten": 2715,
      "Ġtelling": 2716,
      "Ġteam": 2717,
      "Ġfollowing": 2718,
      "atural": 2719,
      "Ġburst": 2720,
      "Ġannoun": 2721,
      "Ġvarious": 2722,
      "Ġcharac": 2723,
      "erence": 2724,
      "Ġstupid": 2725,
      "fl": 2726,
      "mm": 2727,
      "ines": 2728,
      "Ġfool": 2729,
      "Ġdie": 2730,
      "cend": 2731,
      "ists": 2732,
      "Ġflank": 2733,
      "Ġglance": 2734,
      "hys": 2735,
      "Ġplaying": 2736,
      "ĠBerg": 2737,
      "ompan": 2738,
      "Don": 2739,
      "Now": 2740,
      "miss": 2741,
      "uct": 2742,
      "Ġbas": 2743,
      "Ġcaught": 2744,
      "ony": 2745,
      "Ġpressed": 2746,
      "Ġbeat": 2747,
      "Ġval": 2748,
      "isted": 2749,
      "Ġintell": 2750,
      "Ġroll": 2751,
      "Ġcloud": 2752,
      "Ġserious": 2753,
      "Ġneeded": 2754,
      "Ġforest": 2755,
      "Ġdistance": 2756,
      "Ġbroke": 2757,
      "Ġdirection": 2758,
      "Ġdrove": 2759,
      "hal": 2760,
      "ob": 2761,
      "Ġfart": 2762,
      "Ġmed": 2763,
      "ilt": 2764,
      "Ġexam": 2765,
      "eless": 2766,
      "Ġcomes": 2767,
      "Ġhowever": 2768,
      "lease": 2769,
      "Ġpleased": 2770,
      "Ġclean": 2771,
      "Ġbelong": 2772,
      "Ġrapidly": 2773,
      "Ġuntil": 2774,
      "zukhov": 2775,
      "cy": 2776,
      "fe": 2777,
      "joy": 2778,
      "rest": 2779,
      "Ġbott": 2780,
      "ism": 2781,
      "Ġfuture": 2782,
      "Ġmount": 2783,
      "alled": 2784,
      "Ġjud": 2785,
      "Ġlooks": 2786,
      "Ġplaced": 2787,
      "Ġimpress": 2788,
      "Ġinfantry": 2789,
      "Ġdrag": 2790,
      "Ġbreak": 2791,
      "EE": 2792,
      "ivers": 2793,
      "kes": 2794,
      "what": 2795,
      "Ġauth": 2796,
      "atic": 2797,
      "Ġcra": 2798,
      "ĠBes": 2799,
      "Ġseized": 2800,
      "igs": 2801,
      "Ġproper": 2802,
      "ability": 2803,
      "Ġhunt": 2804,
      "ĠBezukhov": 2805,
      "Ġdressed": 2806,
      "Ġdefinite": 2807,
      "ĠðŁĻĦ": 2808,
      "Ġperform": 2809,
      "Ġguests": 2810,
      "Ġexperienced": 2811,
      "Ġspirit": 2812,
      "ued": 2813,
      "uel": 2814,
      "yy": 2815,
      "Ġic": 2816,
      "Ġgri": 2817,
      "ðŁ¤": 2818,
      "Ġfort": 2819,
      "ĠBar": 2820,
      "usted": 2821,
      "Ġcomfort": 2822,
      "Ġcharm": 2823,
      "Ġunc": 2824,
      "Ġamaz": 2825,
      "ĠThough": 2826,
      "Ġperhaps": 2827,
      "Ġhuge": 2828,
      "Ġobject": 2829,
      "Ġchest": 2830,
      "Ġburning": 2831,
      "This": 2832,
      "Ġacquaint": 2833,
      "fer": 2834,
      "ience": 2835,
      "lish": 2836,
      "rit": 2837,
      "Ġbal": 2838,
      "itski": 2839,
      "Ġpub": 2840,
      "Ġinn": 2841,
      "Ġgener": 2842,
      "lend": 2843,
      "imin": 2844,
      "Ġya": 2845,
      "enth": 2846,
      "Ġaside": 2847,
      "Ġsake": 2848,
      "Ġlived": 2849,
      "Ġpossib": 2850,
      "Ġgrown": 2851,
      "hens": 2852,
      "Ġserf": 2853,
      "Ġdescri": 2854,
      "Ġchee": 2855,
      "Ġinvolunt": 2856,
      "Ġinteresting": 2857,
      "Ġlaws": 2858,
      "Ġdoubt": 2859,
      "Do": 2860,
      "Ġhit": 2861,
      "Ġfuc": 2862,
      "Ġyell": 2863,
      "ĠMich": 2864,
      "Ġexact": 2865,
      "esty": 2866,
      "Ġclass": 2867,
      "Ġhappens": 2868,
      "Ġtele": 2869,
      "ĠBehem": 2870,
      "Ġcolonel": 2871,
      "Ġpolit": 2872,
      "Ġtremb": 2873,
      "Ġlearned": 2874,
      "ĠGuards": 2875,
      "Ġremarked": 2876,
      "for": 2877,
      "kin": 2878,
      "ker": 2879,
      "Ġhost": 2880,
      "Ġfood": 2881,
      "Ġwithin": 2882,
      "ache": 2883,
      "Ġshar": 2884,
      "Ġsuper": 2885,
      "Ġlie": 2886,
      "Ġnose": 2887,
      "unch": 2888,
      "Ġspite": 2889,
      "ancing": 2890,
      "action": 2891,
      "Ġslow": 2892,
      "Ġlaughed": 2893,
      "Ġprisoner": 2894,
      "Ġprepared": 2895,
      "Ġparticularly": 2896,
      "Ġimagine": 2897,
      "ĠBehemoth": 2898,
      "Ġ.": 2899,
      "Ġsac": 2900,
      "Ġwine": 2901,
      "ature": 2902,
      "Ġben": 2903,
      "ority": 2904,
      "arrow": 2905,
      "Ġlaughter": 2906,
      "Ġwhist": 2907,
      "Ġforces": 2908,
      "ĠBonaparte": 2909,
      "Ġsofa": 2910,
      "Ġconce": 2911,
      "Ġoutside": 2912,
      "udd": 2913,
      "Ġpassing": 2914,
      "iliar": 2915,
      "Ġbroad": 2916,
      "Ġloss": 2917,
      "Ġreflect": 2918,
      "Ġindic": 2919,
      "Ġcondition": 2920,
      "Ġmuttered": 2921,
      "Ġdamn": 2922,
      "rid": 2923,
      "Ġsir": 2924,
      "Ġwide": 2925,
      "Ġwanna": 2926,
      "athe": 2927,
      "Ġbatter": 2928,
      "imate": 2929,
      "Ġstret": 2930,
      "ĠDan": 2931,
      "ĠCan": 2932,
      "Ġcho": 2933,
      "ĠLol": 2934,
      "Ġenjoy": 2935,
      "Ġincre": 2936,
      "Ġpurp": 2937,
      "Ġsens": 2938,
      "Ġdied": 2939,
      "Ġthrew": 2940,
      "Ġnonsense": 2941,
      "aded": 2942,
      "Ġriver": 2943,
      "ĠPl": 2944,
      "ĠMe": 2945,
      "ouses": 2946,
      "Ġbegun": 2947,
      "Ġcoach": 2948,
      "Ġmarried": 2949,
      "Ġaccompan": 2950,
      "Ġteeth": 2951,
      "Ġcaptain": 2952,
      "Ġinfl": 2953,
      "Ġtowards": 2954,
      "Ġbesides": 2955,
      "Ġdarkness": 2956,
      "Ġglancing": 2957,
      "Ġpointing": 2958,
      "Ġslightly": 2959,
      "Ġsuccess": 2960,
      "Ġporch": 2961,
      "Is": 2962,
      "een": 2963,
      "ket": 2964,
      "wor": 2965,
      "Ġsong": 2966,
      "Ġcre": 2967,
      "Ġment": 2968,
      "Ġphys": 2969,
      "Ġeld": 2970,
      "Ġrev": 2971,
      "ĠBog": 2972,
      "ĠðŁ¥": 2973,
      "ular": 2974,
      "Ġremain": 2975,
      "ĠJud": 2976,
      "Ġgirls": 2977,
      "Ġangrily": 2978,
      "Ġeasy": 2979,
      "Ġcarts": 2980,
      "Ġheavy": 2981,
      "Ġcharacter": 2982,
      "OO": 2983,
      "ball": 2984,
      "hood": 2985,
      "rap": 2986,
      "rect": 2987,
      "era": 2988,
      "Ġboo": 2989,
      "Ġfilled": 2990,
      "Ġdrink": 2991,
      "Ġnote": 2992,
      "Ġhaven": 2993,
      "ĠPr": 2994,
      "ĠPol": 2995,
      "rig": 2996,
      "Ġshot": 2997,
      "osite": 2998,
      "ĠGeneral": 2999,
      "Ġblame": 3000,
      "Ġscar": 3001,
      "Ġwrite": 3002,
      "ĠðŁĺĤðŁĺĤ": 3003,
      "ĠðŁĺĤðŁĺĤðŁĺĤ": 3004,
      "Ġaccept": 3005,
      "Ġsnow": 3006,
      "Ġexplain": 3007,
      "Ġfarther": 3008,
      "All": 3009,
      "inted": 3010,
      "Ġsen": 3011,
      "Ġwa": 3012,
      "Ġfal": 3013,
      "Ġtop": 3014,
      "Ġlim": 3015,
      "Ġgest": 3016,
      "ays": 3017,
      "Ġdepart": 3018,
      "Ġsmell": 3019,
      "Ġfiring": 3020,
      "attered": 3021,
      "ney": 3022,
      "Ġâĺ": 3023,
      "Ġsimple": 3024,
      "Ġvisitors": 3025,
      "ĠChrist": 3026,
      "gram": 3027,
      "Ġcrossed": 3028,
      "Ġconvin": 3029,
      "Ġinquir": 3030,
      "Ġpointed": 3031,
      "Ġvictory": 3032,
      "hu": 3033,
      "mn": 3034,
      "tur": 3035,
      "Ġ8": 3036,
      "hew": 3037,
      "rehens": 3038,
      "Ġhar": 3039,
      "Ġpick": 3040,
      "ĠHa": 3041,
      "agement": 3042,
      "Ġarg": 3043,
      "Ġdiss": 3044,
      "uded": 3045,
      "Ġwriting": 3046,
      "Ġmarry": 3047,
      "Ġsilently": 3048,
      "Ġaffair": 3049,
      "Ġdressing": 3050,
      "Ġwalk": 3051,
      "Ġextra": 3052,
      "ĠCossacks": 3053,
      "ĠTwo": 3054,
      "Ġoccurred": 3055,
      "Ġbaby": 3056,
      "LL": 3057,
      "Un": 3058,
      "Ġtall": 3059,
      "hest": 3060,
      "Ġain": 3061,
      "Ġaud": 3062,
      "Ġmod": 3063,
      "ases": 3064,
      "Ġhearing": 3065,
      "ĠTH": 3066,
      "acking": 3067,
      "Ġdep": 3068,
      "ĠâĢľ": 3069,
      "ĠWho": 3070,
      "ĠDe": 3071,
      "Ġoffice": 3072,
      "rav": 3073,
      "ĠKur": 3074,
      "Ġhanded": 3075,
      "ĠYour": 3076,
      "Ġappo": 3077,
      "ruct": 3078,
      "Ġrepro": 3079,
      "Ġneeds": 3080,
      "teen": 3081,
      "Ġaddressed": 3082,
      "Ġplayed": 3083,
      "Ġbrill": 3084,
      "Ġvisitor": 3085,
      "Ġminute": 3086,
      "ĠMaj": 3087,
      "ĠNikolaevich": 3088,
      "Ġunexpectedly": 3089,
      "cum": 3090,
      "inist": 3091,
      "Ġhate": 3092,
      "itz": 3093,
      "Ġcool": 3094,
      "Ġmain": 3095,
      "Ġpet": 3096,
      "ĠIly": 3097,
      "Ġearly": 3098,
      "Ġring": 3099,
      "oop": 3100,
      "Ġdecl": 3101,
      "----": 3102,
      "Ġtherefore": 3103,
      "Ġchur": 3104,
      "ĠEur": 3105,
      "Ġsplend": 3106,
      "Ġthanks": 3107,
      "Ġdeser": 3108,
      "Ġwatching": 3109,
      "Ġcheck": 3110,
      "Ġinstant": 3111,
      "ggest": 3112,
      "ikhon": 3113,
      "Ġdrive": 3114,
      "Ġhussar": 3115,
      "ĠCossack": 3116,
      "Ġunpleas": 3117,
      "?...": 3118,
      "form": 3119,
      "gor": 3120,
      "Ġ7": 3121,
      "Ġver": 3122,
      "Ġtreat": 3123,
      "Ġcoun": 3124,
      "Ġmir": 3125,
      "Ġdread": 3126,
      "anski": 3127,
      "Ġthrow": 3128,
      "arov": 3129,
      "Ġpit": 3130,
      "Ġeight": 3131,
      "ĠTikhon": 3132,
      "ĠSe": 3133,
      "Ġsuggest": 3134,
      "ĠEng": 3135,
      "Ġtwit": 3136,
      "Ġwindows": 3137,
      "Ġrealized": 3138,
      "Ġpaused": 3139,
      "Ġbarman": 3140,
      "Ġopposite": 3141,
      "Ġliter": 3142,
      "Ġfingers": 3143,
      "Ġdiscuss": 3144,
      "Ġpurpose": 3145,
      "Go": 3146,
      "aa": 3147,
      "ech": 3148,
      "Ġ6": 3149,
      "Ġwel": 3150,
      "Ġheaven": 3151,
      "Ġluck": 3152,
      "Ġpict": 3153,
      "ĠTs": 3154,
      "Ġstuff": 3155,
      "ĠBenn": 3156,
      "Ġmel": 3157,
      "Ġdepend": 3158,
      "inded": 3159,
      "Ġspot": 3160,
      "Ġgray": 3161,
      "Ġgrand": 3162,
      "Ġactions": 3163,
      "Ġscream": 3164,
      "Ġenter": 3165,
      "Ġdesire": 3166,
      "Ġbelow": 3167,
      "Ġsquad": 3168,
      "Ġess": 3169,
      "Ġsorrow": 3170,
      "Ġhosp": 3171,
      "Ġmur": 3172,
      "anks": 3173,
      "Ġyard": 3174,
      "âĢĿ": 3175,
      "Ġformed": 3176,
      "Ġiss": 3177,
      "ĠBald": 3178,
      "Ġsuit": 3179,
      "Ġneigh": 3180,
      "using": 3181,
      "Ġwhatever": 3182,
      "igg": 3183,
      "peranski": 3184,
      "ĠLev": 3185,
      "Ġmarch": 3186,
      "Ġwatched": 3187,
      "Ġobv": 3188,
      "Ġranks": 3189,
      "Ġdrawn": 3190,
      "Ġmatters": 3191,
      "Ġhardly": 3192,
      "otten": 3193,
      "Ġpresented": 3194,
      "igsen": 3195,
      "Ġpublic": 3196,
      "ien": 3197,
      "mon": 3198,
      "val": 3199,
      "zy": 3200,
      "Ġharm": 3201,
      "Ġbene": 3202,
      "Ġpill": 3203,
      "Ġpity": 3204,
      "Ġport": 3205,
      "Ġhero": 3206,
      "keeper": 3207,
      "Ġseason": 3208,
      "ift": 3209,
      "ĠSperanski": 3210,
      "Ġkid": 3211,
      "Ġspring": 3212,
      "Ġimm": 3213,
      "coat": 3214,
      "Ġattract": 3215,
      "Ġaddressing": 3216,
      "Ġevident": 3217,
      "Ġcontinually": 3218,
      "Ġstepped": 3219,
      "Ġfinger": 3220,
      "Ġempty": 3221,
      "ĠBennigsen": 3222,
      ".)": 3223,
      "?!": 3224,
      "Not": 3225,
      "Where": 3226,
      "io": 3227,
      "she": 3228,
      "you": 3229,
      "Ŀ¤": 3230,
      "Ġsin": 3231,
      "Ġsway": 3232,
      "Ġwit": 3233,
      "Ġbound": 3234,
      "uted": 3235,
      "Ġele": 3236,
      "ĠAh": 3237,
      "ĠMamma": 3238,
      "ĠRe": 3239,
      "Ġjour": 3240,
      "Ġprecise": 3241,
      "Ġclot": 3242,
      "Ġshoulder": 3243,
      "Ġentire": 3244,
      "Ġputting": 3245,
      "Ġfeelings": 3246,
      "Ġriding": 3247,
      "Ġrecognized": 3248,
      "Ġokay": 3249,
      "olutely": 3250,
      "Ġjumped": 3251,
      "Ġtonight": 3252,
      "Ġserfs": 3253,
      "Ġneighb": 3254,
      "To": 3255,
      "aul": 3256,
      "my": 3257,
      "Ġom": 3258,
      "Ġbent": 3259,
      "Ġbir": 3260,
      "owers": 3261,
      "ĠTr": 3262,
      "Ġrul": 3263,
      "pper": 3264,
      "Ġconception": 3265,
      "ĠGood": 3266,
      "aken": 3267,
      "Ġapparent": 3268,
      "ending": 3269,
      "Ġspect": 3270,
      "ĠJul": 3271,
      "Ġgreater": 3272,
      "Ġpolice": 3273,
      "Ġapproached": 3274,
      "Ġburned": 3275,
      "Ġfurther": 3276,
      "ING": 3277,
      "Ġaccording": 3278,
      "ĠHills": 3279,
      "Ġinvoluntarily": 3280,
      "ĠLevi": 3281,
      "now": 3282,
      "night": 3283,
      "Ġwol": 3284,
      "Ġhouses": 3285,
      "Ġcost": 3286,
      "Ġfail": 3287,
      "Ġmakes": 3288,
      "idence": 3289,
      "Ġstorm": 3290,
      "Ġpock": 3291,
      "Ġgrowing": 3292,
      "Ġrooms": 3293,
      "khin": 3294,
      "Ġthrown": 3295,
      "ushin": 3296,
      "Ġexplained": 3297,
      "Ġsinging": 3298,
      "Ġbeauty": 3299,
      "Ġ181": 3300,
      "Ġsolemn": 3301,
      "Ġbattery": 3302,
      "Ġbrilliant": 3303,
      "ĠEurope": 3304,
      "ees": 3305,
      "Ġbowed": 3306,
      "Ġmov": 3307,
      "arse": 3308,
      "ĠTushin": 3309,
      "Ġsuite": 3310,
      "uses": 3311,
      "Ġgoes": 3312,
      "Ġworking": 3313,
      "Ġunf": 3314,
      "Ġproble": 3315,
      "Ġwrit": 3316,
      "Ġunderstanding": 3317,
      "Ġcheer": 3318,
      "Ġboots": 3319,
      "Ġconfir": 3320,
      "Ġletters": 3321,
      "Ġpeasant": 3322,
      "Ġgentlemen": 3323,
      "Ġprofessor": 3324,
      "Ġgenius": 3325,
      "Ġhurriedly": 3326,
      "Uncle": 3327,
      "ael": 3328,
      "cing": 3329,
      "cked": 3330,
      "eal": 3331,
      "under": 3332,
      "Ġfate": 3333,
      "Ġdude": 3334,
      "ceed": 3335,
      "Ġstir": 3336,
      "Ġhabit": 3337,
      "Ġseven": 3338,
      "roll": 3339,
      "Ġdece": 3340,
      "Ġalive": 3341,
      "Ġwouldn": 3342,
      "Ġoffered": 3343,
      "ives": 3344,
      "Ġenorm": 3345,
      "Ġheads": 3346,
      "cience": 3347,
      "Ġbrief": 3348,
      "Ġdropped": 3349,
      "Ġgazing": 3350,
      "Ġcaused": 3351,
      "Ġtouched": 3352,
      "Ġpapers": 3353,
      "Ġgovernment": 3354,
      "Ġsettled": 3355,
      "Ġfucking": 3356,
      ",'": 3357,
      "IT": 3358,
      "In": 3359,
      "oon": 3360,
      "port": 3361,
      "rain": 3362,
      "ton": 3363,
      "Ġthreat": 3364,
      "Ġthick": 3365,
      "Ġlab": 3366,
      "Ġlower": 3367,
      "Ġpushed": 3368,
      "Ġrequ": 3369,
      "ĠðŁı": 3370,
      "Ġsovere": 3371,
      "Ġshop": 3372,
      "ĠNes": 3373,
      "ĠCl": 3374,
      "Ġmanner": 3375,
      "ighed": 3376,
      "Ġchance": 3377,
      "Ġplaces": 3378,
      "ĠVar": 3379,
      "Ġinvest": 3380,
      "Ġadvant": 3381,
      "Ġfamiliar": 3382,
      "Ġfallen": 3383,
      "Ġinquired": 3384,
      "Ġanimated": 3385,
      "Ġflying": 3386,
      "Ġnearer": 3387,
      "Ġconvinced": 3388,
      "ĠJulie": 3389,
      "Ġsovereign": 3390,
      "Who": 3391,
      "ners": 3392,
      "vitski": 3393,
      "ingu": 3394,
      "Ġcru": 3395,
      "Ġpun": 3396,
      "ĠHigh": 3397,
      "ĠSp": 3398,
      "Ġshook": 3399,
      "Ġallow": 3400,
      "osity": 3401,
      "cks": 3402,
      "Ġtwe": 3403,
      "Ġflushed": 3404,
      "Ġ:)": 3405,
      "Ġconfused": 3406,
      "irector": 3407,
      "Ġoccasion": 3408,
      "Ġweeks": 3409,
      "Ġapproaching": 3410,
      "Ġcircum": 3411,
      "Ġexpecting": 3412,
      "Ġrubles": 3413,
      "Ġshoes": 3414,
      "Ġexactly": 3415,
      "ĠMajesty": 3416,
      "Ġsplendid": 3417,
      "br": 3418,
      "tt": 3419,
      "Ġbull": 3420,
      "Ġtot": 3421,
      "Ġbell": 3422,
      "Ġrising": 3423,
      "ĠPer": 3424,
      "ĠBy": 3425,
      "Ġshed": 3426,
      "Ġnearly": 3427,
      "ĠGr": 3428,
      "aves": 3429,
      "Ġdism": 3430,
      "Ġposs": 3431,
      "Ġbold": 3432,
      "Ġdistingu": 3433,
      "Ġsupport": 3434,
      "Ġadvance": 3435,
      "Ġmiles": 3436,
      "Ġrapid": 3437,
      "Ġphone": 3438,
      "Ġhigher": 3439,
      "Ġagitated": 3440,
      "ĠLike": 3441,
      "Ġsurrounded": 3442,
      "ĠNesvitski": 3443,
      "She": 3444,
      "af": 3445,
      "case": 3446,
      "ding": 3447,
      "Ġ9": 3448,
      "oured": 3449,
      "Ġda": 3450,
      "Ġhell": 3451,
      "Ġrum": 3452,
      "urse": 3453,
      "irst": 3454,
      "Ġseat": 3455,
      "ified": 3456,
      "Ġshirt": 3457,
      "rop": 3458,
      "Ġpassion": 3459,
      "Ġmarsh": 3460,
      "Ġbattal": 3461,
      "iction": 3462,
      "Ġforehead": 3463,
      "Ġcatch": 3464,
      "Ġrelations": 3465,
      "Ġpersonal": 3466,
      "Ġhonest": 3467,
      "Ġadminist": 3468,
      "Ġconsciousness": 3469,
      "ĠAustrian": 3470,
      "Ġcolumns": 3471,
      "Ġbench": 3472,
      "ĠKuragin": 3473,
      "iar": 3474,
      "ips": 3475,
      "por": 3476,
      "with": 3477,
      "yr": 3478,
      "Ġty": 3479,
      "reen": 3480,
      "reme": 3481,
      "Ġhid": 3482,
      "Ġhanging": 3483,
      "atisf": 3484,
      "Ġcast": 3485,
      "Ġthirty": 3486,
      "oted": 3487,
      "Ġeager": 3488,
      "iday": 3489,
      "Ġride": 3490,
      "Ġash": 3491,
      "ĠBili": 3492,
      "Ġsave": 3493,
      "illery": 3494,
      "Ġshown": 3495,
      "Ġmyster": 3496,
      "uls": 3497,
      "Ġtrave": 3498,
      "ĠðŁĺ©": 3499,
      "ĠGe": 3500,
      "Ġimagin": 3501,
      "Ġcover": 3502,
      "Ġtwice": 3503,
      "Ġgloom": 3504,
      "ĠVera": 3505,
      "Ġdraw": 3506,
      "Ġrelation": 3507,
      "ĠXV": 3508,
      "Ġjob": 3509,
      "Ġcertainly": 3510,
      "Ġforgotten": 3511,
      "cony": 3512,
      "Ġpriv": 3513,
      "which": 3514,
      "Ġabandon": 3515,
      "Ġabandoned": 3516,
      "ĠWhile": 3517,
      "Ġrespond": 3518,
      "Ġsweet": 3519,
      "Ġlaid": 3520,
      "Ġbalcony": 3521,
      "Ŀ¤ï¸ı": 3522,
      "ĠBilibin": 3523,
      "cil": 3524,
      "xim": 3525,
      "Ġwishing": 3526,
      "reed": 3527,
      "Ġhind": 3528,
      "Ġdim": 3529,
      "ashing": 3530,
      "semb": 3531,
      "Ġyouth": 3532,
      "ĠMore": 3533,
      "road": 3534,
      "Ġallowed": 3535,
      "Ġworse": 3536,
      "Ġprot": 3537,
      "Ġmarriage": 3538,
      "Ġsupposed": 3539,
      "Ġartillery": 3540,
      "Ġbitch": 3541,
      "Ġsymp": 3542,
      "Ġtorment": 3543,
      "oofs": 3544,
      "Ġfavorite": 3545,
      "ĠBesides": 3546,
      "Ġinflu": 3547,
      "Ġunpleasant": 3548,
      "ai": 3549,
      "cking": 3550,
      "camp": 3551,
      "of": 3552,
      "tic": 3553,
      "ina": 3554,
      "Ġwis": 3555,
      "Ġdust": 3556,
      "Ġdying": 3557,
      "Ġnone": 3558,
      "Ġep": 3559,
      "Ġwasn": 3560,
      "aled": 3561,
      "Ġstation": 3562,
      "acy": 3563,
      "ĠThese": 3564,
      "Ġmemb": 3565,
      "Ġexch": 3566,
      "aped": 3567,
      "oser": 3568,
      "Ġweep": 3569,
      "rah": 3570,
      "Ġattent": 3571,
      "ship": 3572,
      "gged": 3573,
      "Ġgreet": 3574,
      "Ġsoftly": 3575,
      "Ġembr": 3576,
      "Ġutter": 3577,
      "Ġlifted": 3578,
      "Ġ180": 3579,
      "Ġforeigner": 3580,
      "arrass": 3581,
      "Ġvanished": 3582,
      "Ġavoid": 3583,
      "ĠJudas": 3584,
      "Ġfalse": 3585,
      "hua": 3586,
      "rehensible": 3587,
      "Ġwolf": 3588,
      "Ġcircumst": 3589,
      "Ġmembers": 3590,
      "ES": 3591,
      "jo": 3592,
      "sp": 3593,
      "who": 3594,
      "Ġbow": 3595,
      "ĠAp": 3596,
      "Ġstage": 3597,
      "essire": 3598,
      "key": 3599,
      "Ġsob": 3600,
      "ĠSch": 3601,
      "ershal": 3602,
      "Ġvi": 3603,
      "Ġvirt": 3604,
      "ĠDid": 3605,
      "Ġnodd": 3606,
      "Ġspr": 3607,
      "ĠYershal": 3608,
      "evich": 3609,
      "Ġdrunk": 3610,
      "ĠBefore": 3611,
      "Ġfollow": 3612,
      "ences": 3613,
      "Ġconditions": 3614,
      "Ġstrugg": 3615,
      "ðŁı½": 3616,
      "Ġpromised": 3617,
      "ðŁĺŃðŁĺŃ": 3618,
      "Ġbreath": 3619,
      "Ġhighest": 3620,
      "Ġobser": 3621,
      "Ġmagic": 3622,
      "Ġcitizen": 3623,
      "Ġpulled": 3624,
      "Ġspoken": 3625,
      "Ġgenerally": 3626,
      "Ġenormous": 3627,
      "ĠYershalaim": 3628,
      "Come": 3629,
      "Your": 3630,
      "aly": 3631,
      "Ġtheat": 3632,
      "ataev": 3633,
      "Ġdull": 3634,
      "Ġnurse": 3635,
      "oming": 3636,
      "oting": 3637,
      "Ġbear": 3638,
      "Ġonto": 3639,
      "Ġstream": 3640,
      "Ġshad": 3641,
      "ounds": 3642,
      "Ġspace": 3643,
      "Ġarmch": 3644,
      "Ġspeech": 3645,
      "ĠAnn": 3646,
      "Ġguard": 3647,
      "Ġcarrying": 3648,
      "Ġfindirector": 3649,
      "Ġbedroom": 3650,
      "ĠXX": 3651,
      "Ġraising": 3652,
      "Ġmerry": 3653,
      "Ġnah": 3654,
      "Ġnaked": 3655,
      "Ġexperience": 3656,
      "ĠNext": 3657,
      "Ġmemory": 3658,
      "Ġdespite": 3659,
      "Ġleading": 3660,
      "Ġexecution": 3661,
      "ðŁĻĦ": 3662,
      "Ġentrance": 3663,
      "mission": 3664,
      "Ġpossibility": 3665,
      "Ġsquadron": 3666,
      "cher": 3667,
      "come": 3668,
      "rom": 3669,
      "uous": 3670,
      "Ġwet": 3671,
      "Ġhut": 3672,
      "Ġrain": 3673,
      "essed": 3674,
      "allow": 3675,
      "ilar": 3676,
      "Ġgod": 3677,
      "Ġune": 3678,
      "ĠEr": 3679,
      "Ġtail": 3680,
      "Ġcontempt": 3681,
      "ledge": 3682,
      "Ġclever": 3683,
      "Ġsword": 3684,
      "Ġinterv": 3685,
      "Ġâľ": 3686,
      "Ġwinter": 3687,
      "Ġarrival": 3688,
      "ĠEverything": 3689,
      "Ġembarrass": 3690,
      "Ġceased": 3691,
      "ĠKarataev": 3692,
      "Ġslowly": 3693,
      "Ġinvestig": 3694,
      "Let": 3695,
      "ON": 3696,
      "sit": 3697,
      "ule": 3698,
      "Ġsigh": 3699,
      "Ġsighed": 3700,
      "Ġcup": 3701,
      "Ġmine": 3702,
      "asons": 3703,
      "Ġparent": 3704,
      "Ġincl": 3705,
      "Ġbeha": 3706,
      "Ġears": 3707,
      "sequ": 3708,
      "ries": 3709,
      "ribut": 3710,
      "ĠMar": 3711,
      "ĠMik": 3712,
      "ĠSee": 3713,
      "Ġupset": 3714,
      "Ġalarm": 3715,
      "Ġjack": 3716,
      "Ġarrest": 3717,
      "Ġnoise": 3718,
      "Ġmanaged": 3719,
      "haha": 3720,
      "ĠðŁĺĬ": 3721,
      "Ġplans": 3722,
      "plom": 3723,
      "ĠYOU": 3724,
      "aved": 3725,
      "ruction": 3726,
      "Ġseriously": 3727,
      "Ġentering": 3728,
      "Ġmoments": 3729,
      "Ġcalling": 3730,
      "Ġmaybe": 3731,
      "Ġpaid": 3732,
      "ĠHowever": 3733,
      "Ġwalking": 3734,
      "Ġservants": 3735,
      "Ġfalling": 3736,
      "Ġirrit": 3737,
      "ĠArch": 3738,
      "Ġcircle": 3739,
      "Ġindeed": 3740,
      "ĠNikolaevna": 3741,
      "Ġappearance": 3742,
      "Ġsignificance": 3743,
      "Ġdestroyed": 3744,
      "Ġperfectly": 3745,
      "Ġannounced": 3746,
      "Ġicon": 3747,
      "Ġextraord": 3748,
      "For": 3749,
      "oh": 3750,
      "cely": 3751,
      "Ġstat": 3752,
      "acles": 3753,
      "kend": 3754,
      "iled": 3755,
      "Ġtrouble": 3756,
      "Ġage": 3757,
      "ples": 3758,
      "ĠLe": 3759,
      "Ġamid": 3760,
      "Ġblow": 3761,
      "Ġener": 3762,
      "Ġresol": 3763,
      "Ġregret": 3764,
      "Ġstranger": 3765,
      "Ġobl": 3766,
      "hold": 3767,
      "Ġkindly": 3768,
      "Ġhurt": 3769,
      "???": 3770,
      "ukov": 3771,
      "box": 3772,
      "Ġmajor": 3773,
      "Ġescape": 3774,
      "ĠMichael": 3775,
      "Ġsacrif": 3776,
      "Ġgesture": 3777,
      "Ġliterally": 3778,
      "Ġclothes": 3779,
      "Ġapparently": 3780,
      "Ġashamed": 3781,
      "Ġarmchair": 3782,
      "On": 3783,
      "gy": 3784,
      "ges": 3785,
      "kward": 3786,
      "law": 3787,
      "uit": 3788,
      "Ġbc": 3789,
      "Ġbank": 3790,
      "Ġdry": 3791,
      "ĠAg": 3792,
      "ooking": 3793,
      "ĠSomet": 3794,
      "Ġshri": 3795,
      "Ġshame": 3796,
      "ague": 3797,
      "Ġvent": 3798,
      "ember": 3799,
      "ĠDron": 3800,
      "Ġnovel": 3801,
      "ĠOf": 3802,
      "Ġsmh": 3803,
      "angu": 3804,
      "Ġproud": 3805,
      "Ġcommon": 3806,
      "Ġattempt": 3807,
      "Ġcorrect": 3808,
      "Ġassist": 3809,
      "Ġsuppose": 3810,
      "Ġexplan": 3811,
      "Ġiron": 3812,
      "Ġartist": 3813,
      "Ġextreme": 3814,
      "aturally": 3815,
      "Ġpriest": 3816,
      "Ġdiplom": 3817,
      "Ġmonths": 3818,
      "ternal": 3819,
      "Ġaston": 3820,
      "Ġintellig": 3821,
      "Ġprecisely": 3822,
      ").": 3823,
      "iosity": 3824,
      "mber": 3825,
      "wise": 3826,
      "Ġaut": 3827,
      "Ġwag": 3828,
      "rent": 3829,
      "Ġcards": 3830,
      "Ġmill": 3831,
      "Ġdue": 3832,
      "omm": 3833,
      "Ġga": 3834,
      "str": 3835,
      "Ġrich": 3836,
      "ĠAb": 3837,
      "Ġstone": 3838,
      "aming": 3839,
      "Ġdeli": 3840,
      "ĠWill": 3841,
      "Ġvic": 3842,
      "hail": 3843,
      "ume": 3844,
      "ĠEx": 3845,
      "Ġhandker": 3846,
      "Ġremark": 3847,
      "Ġenc": 3848,
      "Ġspend": 3849,
      "Ġperp": 3850,
      "Ġdistinct": 3851,
      "Ġexcit": 3852,
      "Ġbuy": 3853,
      "fortun": 3854,
      "Ġestate": 3855,
      "while": 3856,
      "noe": 3857,
      "Ġidk": 3858,
      "Ġpalace": 3859,
      "Ġchurch": 3860,
      "Ġjourney": 3861,
      "Ġhandkerchief": 3862,
      "!...\"": 3863,
      "St": 3864,
      "bly": 3865,
      "cast": 3866,
      "code": 3867,
      "Ġahead": 3868,
      "Ġdirty": 3869,
      "Ġlose": 3870,
      "Ġpicked": 3871,
      "Ġnigg": 3872,
      "ims": 3873,
      "ĠHave": 3874,
      "Ġshowing": 3875,
      "que": 3876,
      "emen": 3877,
      "ĠDuring": 3878,
      "Ġsomehow": 3879,
      "rave": 3880,
      "Ġclut": 3881,
      "ĠĠĠĠĠ": 3882,
      "Ġusually": 3883,
      "Ġseries": 3884,
      "Ġpassage": 3885,
      "Ġrepres": 3886,
      "Ġawkward": 3887,
      "onds": 3888,
      "Ġelb": 3889,
      "Ġfinish": 3890,
      "Ġsupper": 3891,
      "Ġadvanced": 3892,
      "Ġseconds": 3893,
      "Ġhelped": 3894,
      "Ġcuriosity": 3895,
      "Ġskin": 3896,
      "Ġincomp": 3897,
      "Ġmovements": 3898,
      "Ġdetach": 3899,
      "Ġforgot": 3900,
      "III": 3901,
      "Ġtouch": 3902,
      "Ġfaith": 3903,
      "Ġsummer": 3904,
      "Ġfirmly": 3905,
      "Ġyellow": 3906,
      "Ġaccompanied": 3907,
      "Ġhospital": 3908,
      "ĠVariety": 3909,
      "Ġadvantage": 3910,
      "Good": 3911,
      "aur": 3912,
      "lav": 3913,
      "ran": 3914,
      "vard": 3915,
      "Ġcard": 3916,
      "ones": 3917,
      "oring": 3918,
      "Ġpier": 3919,
      "Ġnatural": 3920,
      "Ġgle": 3921,
      "icking": 3922,
      "right": 3923,
      "ĠMur": 3924,
      "ĠSud": 3925,
      "Ġking": 3926,
      "oused": 3927,
      "ĠðŁĺĴ": 3928,
      "Ġunw": 3929,
      "Ġcoff": 3930,
      "ðŁĺĺ": 3931,
      "akov": 3932,
      "Ġgets": 3933,
      "Ġflight": 3934,
      "Ġhappening": 3935,
      "rows": 3936,
      "Ġdesper": 3937,
      "Ġcommanders": 3938,
      "Ġcarry": 3939,
      "Ġcrimin": 3940,
      "Ġirre": 3941,
      "Ġtrees": 3942,
      "Ġuttered": 3943,
      "Ġfighting": 3944,
      "Ġsecretary": 3945,
      "Ġhastily": 3946,
      "Ġquarters": 3947,
      "Ġarranged": 3948,
      "Ġcentur": 3949,
      "Ġmentioned": 3950,
      "Ġleaning": 3951,
      "Ġomg": 3952,
      "Ġpocket": 3953,
      "Ġmysterious": 3954,
      "Ġcircumstances": 3955,
      "!'": 3956,
      ".'": 3957,
      "ww": 3958,
      "yn": 3959,
      "Ġaunt": 3960,
      "ert": 3961,
      "Ġdign": 3962,
      "Ġlamp": 3963,
      "Ġpack": 3964,
      "oman": 3965,
      "Ġrejo": 3966,
      "Ġris": 3967,
      "Ġstairs": 3968,
      "ĠMin": 3969,
      "ĠMessire": 3970,
      "iling": 3971,
      "Ġkit": 3972,
      "unity": 3973,
      "ĠLO": 3974,
      "Ġgrow": 3975,
      "ization": 3976,
      "Ġinterested": 3977,
      "Ġjoin": 3978,
      "Ġnoticing": 3979,
      "ĠYeshua": 3980,
      "Ġweekend": 3981,
      "Ġsquare": 3982,
      "ðŁı¼": 3983,
      "Ġbreast": 3984,
      "Ġcollect": 3985,
      "Ġfault": 3986,
      "Ġconcern": 3987,
      "ĠBrother": 3988,
      "Ġproduced": 3989,
      "Ġtrembling": 3990,
      "ĠEnglish": 3991,
      "ĠTsar": 3992,
      "Ġadministr": 3993,
      "Ġnodded": 3994,
      "chen": 3995,
      "iod": 3996,
      "master": 3997,
      "oe": 3998,
      "uly": 3999,
      "zen": 4000,
      "Ġ!": 4001,
      "Ġdancing": 4002,
      "orn": 4003,
      "Ġpen": 4004,
      "Ġpurs": 4005,
      "Ġrad": 4006,
      "oose": 4007,
      "ĠMay": 4008,
      "ĠWhere": 4009,
      "ption": 4010,
      "Ġpecul": 4011,
      "ivid": 4012,
      "Ġappr": 4013,
      "Ġfond": 4014,
      "ĠThanks": 4015,
      "ancy": 4016,
      "Ġgotta": 4017,
      "Ġpersons": 4018,
      "Ġindiff": 4019,
      "Ġrepeating": 4020,
      "Ġcarefully": 4021,
      "Ġjoyful": 4022,
      "Ġabsence": 4023,
      "Ġadmit": 4024,
      "Ġcompanion": 4025,
      "Ġrecognize": 4026,
      "Ġdivision": 4027,
      "Ġtemple": 4028,
      "ustomed": 4029,
      "Ġbuilding": 4030,
      "Ġbenef": 4031,
      "Ġcheerful": 4032,
      "Ġcruel": 4033,
      "Ġexcitement": 4034,
      "ior": 4035,
      "Ġwild": 4036,
      "isc": 4037,
      "Ġcop": 4038,
      "Ġfast": 4039,
      "aris": 4040,
      "Ġlil": 4041,
      "Ġlog": 4042,
      "Ġnation": 4043,
      "Ġnarrow": 4044,
      "Ġknees": 4045,
      "ĠDav": 4046,
      "ĠCon": 4047,
      "haired": 4048,
      "ieur": 4049,
      "Ġagreed": 4050,
      "ĠOur": 4051,
      "ĠKuz": 4052,
      "Ġwants": 4053,
      "Ġserve": 4054,
      "Ġdescend": 4055,
      "Ġopening": 4056,
      "Ġshouts": 4057,
      "Ġobtain": 4058,
      "ibly": 4059,
      "Ġsimilar": 4060,
      "Ġinterests": 4061,
      "Ġcontrad": 4062,
      "Ġjoined": 4063,
      "Ġdriver": 4064,
      "velop": 4065,
      "ocked": 4066,
      "Ġcrossing": 4067,
      "ĠZh": 4068,
      "Ġsuffered": 4069,
      "Ġstreets": 4070,
      "Ġeasily": 4071,
      "Ġvex": 4072,
      "Ġregarded": 4073,
      "Ġagitation": 4074,
      "Ġmagn": 4075,
      "Ġdefinitely": 4076,
      "athered": 4077,
      "Ġappointed": 4078,
      "Ġresponded": 4079,
      "ĠMikhail": 4080,
      "Here": 4081,
      "bl": 4082,
      "dom": 4083,
      "ux": 4084,
      "erl": 4085,
      "isions": 4086,
      "Ġfan": 4087,
      "Ġlod": 4088,
      "Ġgro": 4089,
      "Ġgown": 4090,
      "ĠIm": 4091,
      "Ġforty": 4092,
      "Ġshaking": 4093,
      "ppy": 4094,
      "Ġknee": 4095,
      "ulf": 4096,
      "ositions": 4097,
      "Ġnobody": 4098,
      "Ġintention": 4099,
      "Ġtram": 4100,
      "Ġworn": 4101,
      "Ġknowledge": 4102,
      "Ġanywhere": 4103,
      "ĠLear": 4104,
      "skaya": 4105,
      "yaz": 4106,
      "onsieur": 4107,
      "Ġperiod": 4108,
      "Ġslee": 4109,
      "Ġhorror": 4110,
      "Ġbusy": 4111,
      "Ġhistorical": 4112,
      "ashion": 4113,
      "Ġchairman": 4114,
      "Ġlearning": 4115,
      "enger": 4116,
      "Ġdespair": 4117,
      "Ġcenter": 4118,
      "Ġassumed": 4119,
      "Ġcharming": 4120,
      "Ġsharp": 4121,
      "Ġreproach": 4122,
      "ĠGeor": 4123,
      "Ġsympath": 4124,
      "och": 4125,
      "Ġfet": 4126,
      "Ġfence": 4127,
      "Ġmood": 4128,
      "Ġnerv": 4129,
      "Ġgathered": 4130,
      "ĠMan": 4131,
      "ĠMil": 4132,
      "ĠMaster": 4133,
      "ĠHome": 4134,
      "Ġshut": 4135,
      "Ġneg": 4136,
      "ĠðŁĺį": 4137,
      "aud": 4138,
      "Ġworst": 4139,
      "Ġoffer": 4140,
      "Ġcommiss": 4141,
      "clay": 4142,
      "Ġattend": 4143,
      "Ġofficial": 4144,
      "Ġcapital": 4145,
      "Ġinvited": 4146,
      "Ġreturning": 4147,
      "Ġrecalled": 4148,
      "Ġbadly": 4149,
      "Ġcontrol": 4150,
      "phone": 4151,
      "Ġstayed": 4152,
      "Ġnecessity": 4153,
      "Ġmoonlight": 4154,
      "Ġparticular": 4155,
      "Ġborz": 4156,
      "Ġcouple": 4157,
      "Ġconcluded": 4158,
      "Ġbottle": 4159,
      "Ġimpression": 4160,
      "Ġargum": 4161,
      "Ġ1812": 4162,
      "Ġviol": 4163,
      "ĠSuddenly": 4164,
      "30": 4165,
      "IS": 4166,
      "RE": 4167,
      "car": 4168,
      "ipped": 4169,
      "ming": 4170,
      "uation": 4171,
      "heart": 4172,
      "Ġwrink": 4173,
      "Ġhide": 4174,
      "erable": 4175,
      "Ġcous": 4176,
      "Ġfit": 4177,
      "Ġfair": 4178,
      "Ġdance": 4179,
      "anqu": 4180,
      "Ġpist": 4181,
      "ential": 4182,
      "ĠAug": 4183,
      "urrah": 4184,
      "aches": 4185,
      "ĠHipp": 4186,
      "ĠðŁķ": 4187,
      "estic": 4188,
      "Ġlies": 4189,
      "ĠFather": 4190,
      "--\"": 4191,
      "Ġweird": 4192,
      "ĠLikh": 4193,
      "Ġclub": 4194,
      "Ġenv": 4195,
      "Ġevil": 4196,
      "Ġbetr": 4197,
      "Ġgreatest": 4198,
      "Ġended": 4199,
      "Ġforever": 4200,
      "Ġcorps": 4201,
      "Ġcorrid": 4202,
      "Ġaffection": 4203,
      "Ġdirected": 4204,
      "Ġcurtain": 4205,
      "ĠXI": 4206,
      "Ġdrop": 4207,
      "Ġthousands": 4208,
      "Ġstaying": 4209,
      "Ġimportance": 4210,
      "Ġcrying": 4211,
      "Ġestab": 4212,
      "ĠAusterl": 4213,
      "Ġideas": 4214,
      "Ġtransfer": 4215,
      "Ġimagined": 4216,
      "Ġgolden": 4217,
      "olyte": 4218,
      "Ġanxious": 4219,
      "Ġsternly": 4220,
      "ĠBarclay": 4221,
      "Ġdreadful": 4222,
      "Ġinfluence": 4223,
      "Ġartiste": 4224,
      "ĠMurat": 4225,
      "ĠHippolyte": 4226,
      "ĠAusterlitz": 4227,
      "lin": 4228,
      "minded": 4229,
      "pir": 4230,
      "Ġz": 4231,
      "Ġtest": 4232,
      "Ġtear": 4233,
      "ata": 4234,
      "Ġciv": 4235,
      "Ġcord": 4236,
      "Ġdom": 4237,
      "Ġlines": 4238,
      "stem": 4239,
      "stairs": 4240,
      "Ġseated": 4241,
      "anting": 4242,
      "quar": 4243,
      "ags": 4244,
      "Ġrob": 4245,
      "ĠðŁĺĺ": 4246,
      "Ġunn": 4247,
      "orted": 4248,
      "Ġamb": 4249,
      "Ġcloser": 4250,
      "Ġremoved": 4251,
      "Ġglit": 4252,
      "russi": 4253,
      "attle": 4254,
      "Ġaccustomed": 4255,
      "Ġtext": 4256,
      "Ġsleigh": 4257,
      "Ġdifficul": 4258,
      "Ġconfusion": 4259,
      "Ġlights": 4260,
      "Ġinstruct": 4261,
      "Ġrefer": 4262,
      "Ġinside": 4263,
      "Ġconsidering": 4264,
      "ification": 4265,
      "Ġconduct": 4266,
      "Ġdriving": 4267,
      "Ġdelic": 4268,
      "Ġwalls": 4269,
      "Ġstronger": 4270,
      "Ġdogs": 4271,
      "Ġloudly": 4272,
      "rades": 4273,
      "Ġfrowning": 4274,
      "Ġmotionless": 4275,
      "Ġmounted": 4276,
      "Ġcrazy": 4277,
      "Ġelder": 4278,
      "Ġdeparture": 4279,
      "Ġproblem": 4280,
      "Ġdifficulty": 4281,
      "OW": 4282,
      "One": 4283,
      "gan": 4284,
      "ially": 4285,
      "rs": 4286,
      "Ġ$": 4287,
      "ination": 4288,
      "Ġwound": 4289,
      "atched": 4290,
      "Ġcere": 4291,
      "Ġpin": 4292,
      "Ġnon": 4293,
      "omte": 4294,
      "Ġgay": 4295,
      "let": 4296,
      "Ġelect": 4297,
      "ayed": 4298,
      "Ġrn": 4299,
      "Ġshru": 4300,
      "ĠNew": 4301,
      "Ġdeb": 4302,
      "ĠWar": 4303,
      "Ġnois": 4304,
      "Ġchill": 4305,
      "Ġque": 4306,
      "Ġimpl": 4307,
      "Ġblushed": 4308,
      "Ġprove": 4309,
      "Ġovert": 4310,
      "Ġpract": 4311,
      "ĠFrenchmen": 4312,
      "Ġholl": 4313,
      "Ġhoarse": 4314,
      "Ġhousehold": 4315,
      "Ġ10": 4316,
      "Ġawake": 4317,
      "Ġvisible": 4318,
      "Ġdirectly": 4319,
      "Ġpersonally": 4320,
      "Ġcampf": 4321,
      "Ġjoyfully": 4322,
      "ðŁı¾": 4323,
      "Ġopport": 4324,
      "Ġpromise": 4325,
      "Ġforgive": 4326,
      "Ġprevious": 4327,
      "Ġpiece": 4328,
      "Ġauthor": 4329,
      "Ġcheeks": 4330,
      "Ġcoachman": 4331,
      "Ġsenseless": 4332,
      "ienna": 4333,
      "ĠHighness": 4334,
      "Ġextraordinary": 4335,
      "Ġoblig": 4336,
      "Ġperplex": 4337,
      "Ġpistol": 4338,
      "cer": 4339,
      "fare": 4340,
      "fuel": 4341,
      "iel": 4342,
      "nn": 4343,
      "ye": 4344,
      "Ġtired": 4345,
      "Ġsang": 4346,
      "Ġspl": 4347,
      "Ġwore": 4348,
      "Ġwoke": 4349,
      "erm": 4350,
      "Ġfully": 4351,
      "Ġmatch": 4352,
      "omen": 4353,
      "Ġet": 4354,
      "Ġreve": 4355,
      "Ġreception": 4356,
      "ette": 4357,
      "Ġuseless": 4358,
      "ĠAre": 4359,
      "ĠAra": 4360,
      "Ġstout": 4361,
      "urd": 4362,
      "ĠPrussi": 4363,
      "apa": 4364,
      "ulg": 4365,
      "Ġtrain": 4366,
      "ĠKre": 4367,
      "ĠEh": 4368,
      "ĠLav": 4369,
      "Ġcouldn": 4370,
      "Ġeverywhere": 4371,
      "Ġdont": 4372,
      "ĠVienna": 4373,
      "Ġletting": 4374,
      "ĠAnother": 4375,
      "ucharov": 4376,
      "Ġordinary": 4377,
      "Ġourselves": 4378,
      "lessly": 4379,
      "Ġcrit": 4380,
      "Ġinstantly": 4381,
      "Ġregimental": 4382,
      "Ġballs": 4383,
      "Ġdetails": 4384,
      "Ġglasses": 4385,
      "Ġreports": 4386,
      "asped": 4387,
      "Ġcandle": 4388,
      "Ġleaned": 4389,
      "Ġdelighted": 4390,
      "Ġinevitability": 4391,
      "Ġgrief": 4392,
      "Ġacquaintance": 4393,
      "Ġbooks": 4394,
      "Ġincomprehensible": 4395,
      "Ġadministrator": 4396,
      "Ġcorridor": 4397,
      "ucharovo": 4398,
      "hand": 4399,
      "ias": 4400,
      "ipe": 4401,
      "over": 4402,
      "time": 4403,
      "uke": 4404,
      "Ġ,": 4405,
      "Ġtheory": 4406,
      "Ġwip": 4407,
      "reet": 4408,
      "Ġhom": 4409,
      "atured": 4410,
      "Ġble": 4411,
      "Ġheight": 4412,
      "Ġpop": 4413,
      "Ġpoured": 4414,
      "Ġinha": 4415,
      "Ġgames": 4416,
      "add": 4417,
      "iced": 4418,
      "Ġrang": 4419,
      "Ġstuck": 4420,
      "ĠParis": 4421,
      "ĠPfuel": 4422,
      "ĠHA": 4423,
      "ify": 4424,
      "ĠSever": 4425,
      "agott": 4426,
      "Ġvale": 4427,
      "ĠCome": 4428,
      "Ġintended": 4429,
      "Ġwealth": 4430,
      "Ġtrous": 4431,
      "ðŁĺį": 4432,
      "Ġdisord": 4433,
      "cient": 4434,
      "Ġscr": 4435,
      "Ġorderly": 4436,
      "Ġreceive": 4437,
      "Ġfootman": 4438,
      "Ġpolic": 4439,
      "Ġbelieved": 4440,
      "Ġabsent": 4441,
      "ðŁĴĢ": 4442,
      "Ġcauses": 4443,
      "Ġquarter": 4444,
      "Ġdangerous": 4445,
      "Ġconnection": 4446,
      "Ġwonderful": 4447,
      "Ġawaiting": 4448,
      "Ġincreased": 4449,
      "ĠBogucharovo": 4450,
      "Ġscarcely": 4451,
      "Ġtweet": 4452,
      "Ġtheatre": 4453,
      "ĠAnnushka": 4454,
      "ĠAgain": 4455,
      "ĠSeveral": 4456,
      "aked": 4457,
      "bles": 4458,
      "field": 4459,
      "iu": 4460,
      "lm": 4461,
      "uh": 4462,
      "Ġer": 4463,
      "Ġtick": 4464,
      "Ġaide": 4465,
      "inst": 4466,
      "Ġscience": 4467,
      "ites": 4468,
      "Ġcustom": 4469,
      "Ġden": 4470,
      "Ġppl": 4471,
      "Ġpressing": 4472,
      "Ġeh": 4473,
      "Ġreach": 4474,
      "ĠTe": 4475,
      "Ġstro": 4476,
      "Ġstick": 4477,
      "ession": 4478,
      "Ġsaved": 4479,
      "Ġsobs": 4480,
      "Ġcomrades": 4481,
      "eps": 4482,
      "Ġflashed": 4483,
      "Ġswear": 4484,
      "ĠFriday": 4485,
      "ĠðŁĻĥ": 4486,
      "ocking": 4487,
      "Ġsaddle": 4488,
      "Ġkeeping": 4489,
      "ĠMadame": 4490,
      "ĠEveryone": 4491,
      "Ġtouching": 4492,
      "Ġpreviously": 4493,
      "Ġedge": 4494,
      "Ġeduc": 4495,
      "Ġannoy": 4496,
      "bitants": 4497,
      "Ġrespons": 4498,
      "Ġefforts": 4499,
      "ĠProcurator": 4500,
      "Ġfrowned": 4501,
      "Ġuncons": 4502,
      "Ġexplanation": 4503,
      "Ġkitchen": 4504,
      "ĠAugust": 4505,
      "50": 4506,
      "Very": 4507,
      "bat": 4508,
      "dra": 4509,
      "ober": 4510,
      "rated": 4511,
      "Ġwest": 4512,
      "Ġwaved": 4513,
      "erk": 4514,
      "ators": 4515,
      "Ġcoo": 4516,
      "Ġfulf": 4517,
      "Ġdar": 4518,
      "Ġdare": 4519,
      "orse": 4520,
      "ann": 4521,
      "Ġthro": 4522,
      "Ġhesit": 4523,
      "Ġnap": 4524,
      "adov": 4525,
      "Ġeast": 4526,
      "Ġyo": 4527,
      "ste": 4528,
      "Ġren": 4529,
      "Ġros": 4530,
      "Ġrare": 4531,
      "ĠAph": 4532,
      "oves": 4533,
      "riages": 4534,
      "Ġsuperi": 4535,
      "Ġlives": 4536,
      "osen": 4537,
      "ĠDr": 4538,
      "ĠFre": 4539,
      "ĠFagott": 4540,
      "ĠðŁĺħ": 4541,
      "Ġplump": 4542,
      "ploy": 4543,
      "Ġsport": 4544,
      "Ġprocess": 4545,
      "Ġarmies": 4546,
      "Ġproved": 4547,
      "ived": 4548,
      "ĠThose": 4549,
      "Ġmustache": 4550,
      "Ġemotion": 4551,
      "ensive": 4552,
      "Ġwaited": 4553,
      "ĠStill": 4554,
      "ĠDolgor": 4555,
      "Ġrealize": 4556,
      "ĠToll": 4557,
      "Ġmissed": 4558,
      "Ġmusket": 4559,
      "odeev": 4560,
      "Ġgentleman": 4561,
      "Ġeyeb": 4562,
      "Ġprayer": 4563,
      "Ġgovernor": 4564,
      "ĠQu": 4565,
      "Ġdemanded": 4566,
      "Ġacquaintances": 4567,
      "Ġobviously": 4568,
      "Ġentirely": 4569,
      "Ġbirth": 4570,
      "Ġuneas": 4571,
      "Ġparents": 4572,
      "ranius": 4573,
      "ĠHomeless": 4574,
      "quarters": 4575,
      "ĠAphranius": 4576,
      "ĠDolgorukov": 4577,
      "CK": 4578,
      "IG": 4579,
      "OT": 4580,
      "VE": 4581,
      "mas": 4582,
      "rovich": 4583,
      "uce": 4584,
      "vich": 4585,
      "zing": 4586,
      "iny": 4587,
      "reci": 4588,
      "Ġhy": 4589,
      "Ġheat": 4590,
      "Ġlane": 4591,
      "Ġlosing": 4592,
      "Ġpause": 4593,
      "Ġbew": 4594,
      "stand": 4595,
      "alta": 4596,
      "Ġstar": 4597,
      "Ġstories": 4598,
      "oval": 4599,
      "ĠMonsieur": 4600,
      "ĠBel": 4601,
      "Ġsevere": 4602,
      "ĠSc": 4603,
      "ĠSu": 4604,
      "Ġdoors": 4605,
      "Ġvod": 4606,
      "aper": 4607,
      "Ġgoal": 4608,
      "Ġtrot": 4609,
      "Ġtroub": 4610,
      "Ġaren": 4611,
      "Ġsomebody": 4612,
      "ĠYea": 4613,
      "Ġafterwards": 4614,
      "igned": 4615,
      "Ġscared": 4616,
      "Ġaddress": 4617,
      "ibald": 4618,
      "Ġdrown": 4619,
      "Ġdrank": 4620,
      "Ġterror": 4621,
      "Ġsetting": 4622,
      "Ġrelig": 4623,
      "Ġinterp": 4624,
      "Ġrestaur": 4625,
      "Ġfamous": 4626,
      "Ġsleeping": 4627,
      "Ġballroom": 4628,
      "ĠAlexe": 4629,
      "Ġexcuse": 4630,
      "Ġconvoy": 4631,
      "Ġbitter": 4632,
      "Ġbreaking": 4633,
      "Ġpainful": 4634,
      "Ġhumanity": 4635,
      "Ġengagement": 4636,
      "Ġinformed": 4637,
      "Ġsatisfaction": 4638,
      "Ġcheek": 4639,
      "ĠDaniel": 4640,
      "Ġmental": 4641,
      "Ġdissatisf": 4642,
      "Ġmirror": 4643,
      "Ġspectacles": 4644,
      "Ġtotally": 4645,
      "Ġbattalion": 4646,
      "Ġhonestly": 4647,
      "Ġnigga": 4648,
      "ĠGeorge": 4649,
      "Ġcousin": 4650,
      "ĠLikhodeev": 4651,
      "Ġinhabitants": 4652,
      "hic": 4653,
      "iently": 4654,
      "kche": 4655,
      "off": 4656,
      "za": 4657,
      "Ġice": 4658,
      "ndered": 4659,
      "Ġbought": 4660,
      "ises": 4661,
      "Ġfill": 4662,
      "anch": 4663,
      "Ġpair": 4664,
      "ĠApp": 4665,
      "ðŁį": 4666,
      "ĠBl": 4667,
      "ĠNet": 4668,
      "Ġmeas": 4669,
      "ĠFe": 4670,
      "Ġintro": 4671,
      "Ġtranqu": 4672,
      "Ġtimidly": 4673,
      "Ġplat": 4674,
      "ĠEven": 4675,
      "pless": 4676,
      "Ġtakes": 4677,
      "ĠLord": 4678,
      "Ġundert": 4679,
      "Ġotherwise": 4680,
      "though": 4681,
      "Ġglory": 4682,
      "Ġspeed": 4683,
      "ample": 4684,
      "Ġconsult": 4685,
      "Ġdesk": 4686,
      "Ġemer": 4687,
      "Ġ19": 4688,
      "Ġfinding": 4689,
      "Ġanger": 4690,
      "Ġpolite": 4691,
      "Ġreceiving": 4692,
      "Ġabsolutely": 4693,
      "Ġkissing": 4694,
      "Ġanimal": 4695,
      "Ġsystem": 4696,
      "Ġtorn": 4697,
      "Ġexistence": 4698,
      "Ġindepend": 4699,
      "Ġexecuted": 4700,
      "Ġfifty": 4701,
      "Ġcaptured": 4702,
      "Ġpieces": 4703,
      "ðŁ¤Ķ": 4704,
      "Ġpolitical": 4705,
      "ĠPlat": 4706,
      "ĠTHE": 4707,
      "Ġgloomy": 4708,
      "Ġprivate": 4709,
      "Ġepis": 4710,
      "Ġjacket": 4711,
      "Ġarrested": 4712,
      "ĠArchibald": 4713,
      "Ġdignity": 4714,
      "ĠLearning": 4715,
      "Ġvodka": 4716,
      "Ġrestaurant": 4717,
      "kcheev": 4718,
      "AN": 4719,
      "ME": 4720,
      "Then": 4721,
      "hus": 4722,
      "ii": 4723,
      "ipt": 4724,
      "lies": 4725,
      "zed": 4726,
      "Ġx": 4727,
      "Ġvers": 4728,
      "Ġhang": 4729,
      "Ġbread": 4730,
      "Ġfashion": 4731,
      "asing": 4732,
      "Ġthus": 4733,
      "Ġloving": 4734,
      "Ġlangu": 4735,
      "Ġnorm": 4736,
      "Ġnature": 4737,
      "aling": 4738,
      "Ġrace": 4739,
      "Ġstore": 4740,
      "acious": 4741,
      "ĠSer": 4742,
      "Ġshy": 4743,
      "Ġshone": 4744,
      "emon": 4745,
      "Ġknife": 4746,
      "Ġliber": 4747,
      "Ġjoke": 4748,
      "Ġintimate": 4749,
      "Ġsomewhat": 4750,
      "Ġuns": 4751,
      "Ġunfortun": 4752,
      "Ġoffended": 4753,
      "ounted": 4754,
      "ĠKir": 4755,
      "Ġfever": 4756,
      "Ġblind": 4757,
      "ishment": 4758,
      "Ġcommun": 4759,
      "cles": 4760,
      "Ġscrew": 4761,
      "ĠPeter": 4762,
      "Ġcontinue": 4763,
      "ibility": 4764,
      "Ġloc": 4765,
      "Ġstarting": 4766,
      "Ġinsign": 4767,
      "Ġinsisted": 4768,
      "ĠFrance": 4769,
      "ĠðŁĳĢ": 4770,
      "Ġindivid": 4771,
      "Ġrepeat": 4772,
      "Ġhurry": 4773,
      "ursday": 4774,
      "hhhh": 4775,
      "Ġrespectfully": 4776,
      "Ġdeeply": 4777,
      "Ġsucceed": 4778,
      "Ġruined": 4779,
      "Ġbreathing": 4780,
      "ology": 4781,
      "Ġsmooth": 4782,
      "ĠPolish": 4783,
      "Ġdepri": 4784,
      "ĠArakcheev": 4785,
      "Ġvalet": 4786,
      "Ġeyebrows": 4787,
      "?...\"": 4788,
      "God": 4789,
      "Prin": 4790,
      "book": 4791,
      "hs": 4792,
      "ike": 4793,
      "ls": 4794,
      "lov": 4795,
      "rushka": 4796,
      "Ġtast": 4797,
      "Ġdumb": 4798,
      "esus": 4799,
      "Ġlm": 4800,
      "Ġpace": 4801,
      "Ġpuff": 4802,
      "Ġpushing": 4803,
      "ĠIT": 4804,
      "Ġbeard": 4805,
      "ĠTim": 4806,
      "ðŁİ": 4807,
      "ĠPop": 4808,
      "ĠPlease": 4809,
      "ova": 4810,
      "olov": 4811,
      "Ġsaber": 4812,
      "ĠSw": 4813,
      "Ġfrost": 4814,
      "ĠâĢĵ": 4815,
      "ĠRiu": 4816,
      "Ġwheels": 4817,
      "ĠDess": 4818,
      "ieve": 4819,
      "Ġwear": 4820,
      "ĠOld": 4821,
      "plic": 4822,
      "Ġheadquarters": 4823,
      "Ġenthus": 4824,
      "ubs": 4825,
      "Ġcourty": 4826,
      "Ġfellows": 4827,
      "ĠStep": 4828,
      "ï¸ıâ": 4829,
      "Ġadvice": 4830,
      "Ġcrowded": 4831,
      "Ġdefe": 4832,
      "Ġillness": 4833,
      "Ġphil": 4834,
      "Ġreported": 4835,
      "Ġexisted": 4836,
      "Ġshoot": 4837,
      "Ġfunny": 4838,
      "Ġsituation": 4839,
      "Ġremarks": 4840,
      "Ġauthority": 4841,
      "Ġimmense": 4842,
      "Ġconfirmed": 4843,
      "ĠGrand": 4844,
      "Ġattentively": 4845,
      "Ġembraced": 4846,
      "Ġgaily": 4847,
      "Ġdetachment": 4848,
      "ĠKuzmin": 4849,
      "Ġtrousers": 4850,
      "ĠAlexeevich": 4851,
      "ĠRiukhin": 4852,
      "As": 4853,
      "Wh": 4854,
      "cent": 4855,
      "dan": 4856,
      "gu": 4857,
      "natured": 4858,
      "Ġign": 4859,
      "insky": 4860,
      "edov": 4861,
      "Ġbout": 4862,
      "Ġbod": 4863,
      "itter": 4864,
      "Ġcreat": 4865,
      "Ġcook": 4866,
      "Ġfil": 4867,
      "Ġming": 4868,
      "Ġmort": 4869,
      "Ġdanced": 4870,
      "Ġpure": 4871,
      "Ġpaw": 4872,
      "Ġpool": 4873,
      "ades": 4874,
      "oward": 4875,
      "idently": 4876,
      "Ġupper": 4877,
      "ĠTO": 4878,
      "ribo": 4879,
      "herkov": 4880,
      "ĠSadov": 4881,
      "Ġnep": 4882,
      "apter": 4883,
      "ĠCa": 4884,
      "rapped": 4885,
      "Ġfeared": 4886,
      "Ġprogram": 4887,
      "Ġbecoming": 4888,
      "ueen": 4889,
      "ĠAny": 4890,
      "Ġattitude": 4891,
      "Ġserge": 4892,
      "Ġregular": 4893,
      "Ġcarp": 4894,
      "Ġcarriages": 4895,
      "Ġslept": 4896,
      "ibb": 4897,
      "Ġdecision": 4898,
      "Ġreceiver": 4899,
      "Ġ201": 4900,
      "Ġdining": 4901,
      "Ġbuilt": 4902,
      "ĠZherkov": 4903,
      "Ġ30": 4904,
      "Ġtriump": 4905,
      "umbled": 4906,
      "Ġsocial": 4907,
      "aggage": 4908,
      "cript": 4909,
      "Ġtenderness": 4910,
      "Ġrolled": 4911,
      "Ġhunts": 4912,
      "work": 4913,
      "Ġphysical": 4914,
      "Ġaudience": 4915,
      "ĠIlyin": 4916,
      "Ġthreatening": 4917,
      "Ġpeculiar": 4918,
      "ĠDavout": 4919,
      "Ġglittering": 4920,
      "Ġinstructions": 4921,
      "Ġhollow": 4922,
      "Ġinsignific": 4923,
      "Ġcourtyard": 4924,
      "riboedov": 4925,
      "gl": 4926,
      "just": 4927,
      "oons": 4928,
      "tf": 4929,
      "tw": 4930,
      "Ġtight": 4931,
      "het": 4932,
      "inging": 4933,
      "Ġfem": 4934,
      "Ġfought": 4935,
      "Ġmal": 4936,
      "Ġdrin": 4937,
      "ask": 4938,
      "esh": 4939,
      "Ġpow": 4940,
      "Ġnurs": 4941,
      "Ġeating": 4942,
      "Ġreasons": 4943,
      "alk": 4944,
      "urance": 4945,
      "ðŁĩ": 4946,
      "erene": 4947,
      "acity": 4948,
      "ĠHad": 4949,
      "ĠSO": 4950,
      "Ġfrank": 4951,
      "Ġshare": 4952,
      "Ġexha": 4953,
      "ella": 4954,
      "Ġweary": 4955,
      "Ġchosen": 4956,
      "ĠðŁĺĶ": 4957,
      "Ġworked": 4958,
      "ĠGriboedov": 4959,
      "Ġclin": 4960,
      "aks": 4961,
      "Ġfold": 4962,
      "Ġprinci": 4963,
      "Ġimpat": 4964,
      "ontius": 4965,
      "ilian": 4966,
      "Ġfriendship": 4967,
      "Ġdistur": 4968,
      "ĠStrav": 4969,
      "ailed": 4970,
      "ĠâĻ": 4971,
      "ĠðŁĴĢ": 4972,
      "ĠWeyr": 4973,
      "Ġsincere": 4974,
      "Ġfootst": 4975,
      "Ġmoan": 4976,
      "Ġmercy": 4977,
      "ðŁı»": 4978,
      "ĠArk": 4979,
      "Ġpreparing": 4980,
      "Ġestates": 4981,
      "Ġdestruction": 4982,
      "Ġexcellent": 4983,
      "Ġheavily": 4984,
      "Ġfifth": 4985,
      "Ġseparated": 4986,
      "Ġclouds": 4987,
      "Ġproperty": 4988,
      "Ġreview": 4989,
      "ĠBogdan": 4990,
      "Ġringing": 4991,
      "Ġcouncil": 4992,
      "Ġsuggested": 4993,
      "ĠTrump": 4994,
      "Ġdawn": 4995,
      "Ġmarshal": 4996,
      "Ġextremely": 4997,
      "Ġrepresent": 4998,
      "Ġnervous": 4999,
      "Ġceremon": 5000,
      "Ġopportunity": 5001,
      "Ġnephew": 5002,
      "ĠStravinsky": 5003,
      "ĠWeyrother": 5004,
      "Have": 5005,
      "OR": 5006,
      "gress": 5007,
      "iance": 5008,
      "more": 5009,
      "ral": 5010,
      "ram": 5011,
      "Ġap": 5012,
      "Ġwed": 5013,
      "nding": 5014,
      "erning": 5015,
      "Ġbaggage": 5016,
      "Ġcab": 5017,
      "Ġpan": 5018,
      "utions": 5019,
      "icated": 5020,
      "Ġreaching": 5021,
      "ĠTur": 5022,
      "ĠAd": 5023,
      "ĠAnt": 5024,
      "ðŁĶ": 5025,
      "ĠPontius": 5026,
      "Ġanter": 5027,
      "riors": 5028,
      "alls": 5029,
      "ctober": 5030,
      "anda": 5031,
      "andom": 5032,
      "Ġdepress": 5033,
      "Ġdevelop": 5034,
      "Ġknoll": 5035,
      "ums": 5036,
      "Ġunivers": 5037,
      "ĠGet": 5038,
      "ource": 5039,
      "ĠYalta": 5040,
      "Ġprim": 5041,
      "Ġflood": 5042,
      "ccup": 5043,
      "ĠJesus": 5044,
      "Ġserving": 5045,
      "Ġserved": 5046,
      "Ġ11": 5047,
      "Ġsilk": 5048,
      "Ġconfidence": 5049,
      "Ġrefuse": 5050,
      "Ġreality": 5051,
      "ĠâĿ¤ï¸ı": 5052,
      "ðŁĺĤðŁĺĤðŁĺĤðŁĺĤ": 5053,
      "Ġirres": 5054,
      "Ġabsor": 5055,
      "ĠNikolai": 5056,
      "Ġfourth": 5057,
      "Ġmistake": 5058,
      "Ġgalloping": 5059,
      "Ġbookkeeper": 5060,
      "Ġproposed": 5061,
      "Ġhungry": 5062,
      "Ġobserv": 5063,
      "Ġhoping": 5064,
      "Ġinformation": 5065,
      "Ġcandles": 5066,
      "Ġmessenger": 5067,
      "Ġintellect": 5068,
      "Ġdragged": 5069,
      "Ġtelegram": 5070,
      "Ġscreamed": 5071,
      "sembled": 5072,
      "Ġtormented": 5073,
      "Ġsacrifice": 5074,
      "Ġsympathy": 5075,
      "ĠLavrushka": 5076,
      "Ġindividual": 5077,
      "Ġanteroom": 5078,
      "AY": 5079,
      "Can": 5080,
      "UT": 5081,
      "face": 5082,
      "iam": 5083,
      "lished": 5084,
      "Ġtied": 5085,
      "Ġsank": 5086,
      "Ġhood": 5087,
      "ato": 5088,
      "Ġbath": 5089,
      "Ġdouble": 5090,
      "Ġnaturally": 5091,
      "omach": 5092,
      "Ġease": 5093,
      "aying": 5094,
      "Ġroof": 5095,
      "ĠPo": 5096,
      "ĠPat": 5097,
      "ĠPonds": 5098,
      "ĠBulg": 5099,
      "alles": 5100,
      "ssss": 5101,
      "anted": 5102,
      "Ġconsequ": 5103,
      "Ġdeg": 5104,
      "ements": 5105,
      "Ġlip": 5106,
      "Ġjeal": 5107,
      "ĠFed": 5108,
      "Ġleather": 5109,
      "Ġlevel": 5110,
      "ongue": 5111,
      "ĠðŁĺī": 5112,
      "Ġuncom": 5113,
      "ĠOt": 5114,
      "Ġsmart": 5115,
      "ivered": 5116,
      "Ġyours": 5117,
      "ĠLat": 5118,
      "ðŁĺ©": 5119,
      "Ġremind": 5120,
      "Ġgrasp": 5121,
      "fty": 5122,
      "Ġappreci": 5123,
      "Ġpeoples": 5124,
      "atthew": 5125,
      "leased": 5126,
      "azz": 5127,
      "Ġguy": 5128,
      "Ġsilver": 5129,
      "Ġcrack": 5130,
      "Ġinstance": 5131,
      "ĠStreet": 5132,
      "Ġbattlefield": 5133,
      "Ġrefused": 5134,
      "they": 5135,
      "Ġcurrent": 5136,
      "Ġrecall": 5137,
      "Ġservant": 5138,
      "Ġsteward": 5139,
      "Ġmidst": 5140,
      "Ġdoctors": 5141,
      "Ġgaze": 5142,
      "umbling": 5143,
      "Ġadjutants": 5144,
      "Ġchiefly": 5145,
      "Ġfields": 5146,
      "bye": 5147,
      "ollon": 5148,
      "Ġsumm": 5149,
      "Ġnearest": 5150,
      "Ġdescribed": 5151,
      "Ġwhistling": 5152,
      "Ġaccepted": 5153,
      "Ġmaintain": 5154,
      "--------": 5155,
      "Ġessential": 5156,
      "ĠReally": 5157,
      "Ġdistinguished": 5158,
      "Ġtype": 5159,
      "Ġimagination": 5160,
      "Ġwishes": 5161,
      "ĠApollon": 5162,
      "Ġinterview": 5163,
      "Ġinvestigation": 5164,
      "ributed": 5165,
      "Ġvicomte": 5166,
      "Ġcriminal": 5167,
      "Ġdarling": 5168,
      "Ġlmfa": 5169,
      "ĠDessalles": 5170,
      "ĠSadovaya": 5171,
      "Ġtriumph": 5172,
      "ĠBulgakov": 5173,
      "Ġjealous": 5174,
      "Are": 5175,
      "Hurrah": 5176,
      "bet": 5177,
      "gemon": 5178,
      "mans": 5179,
      "then": 5180,
      "was": 5181,
      "Â´": 5182,
      "Ġ..": 5183,
      "reg": 5184,
      "Ġoper": 5185,
      "Ġhiding": 5186,
      "Ġbased": 5187,
      "itary": 5188,
      "itive": 5189,
      "Ġfired": 5190,
      "Ġdate": 5191,
      "orovna": 5192,
      "Ġhel": 5193,
      "armed": 5194,
      "Ġpot": 5195,
      "Ġpra": 5196,
      "Ġpour": 5197,
      "Ġpipe": 5198,
      "Ġnations": 5199,
      "Ġge": 5200,
      "Ġgates": 5201,
      "utation": 5202,
      "icient": 5203,
      "Ġuh": 5204,
      "Ġrust": 5205,
      "Ġstair": 5206,
      "Ġstomach": 5207,
      "ural": 5208,
      "Ġforced": 5209,
      "ĠSund": 5210,
      "Ġframe": 5211,
      "Ġshining": 5212,
      "Ġdept": 5213,
      "Ġdoll": 5214,
      "elled": 5215,
      "Ġvague": 5216,
      "Ġarch": 5217,
      "Ġabroad": 5218,
      "oundrel": 5219,
      "Ġmane": 5220,
      "Ġtrait": 5221,
      "Ġchoose": 5222,
      "ĠGl": 5223,
      "rait": 5224,
      "ĠKing": 5225,
      "ptim": 5226,
      "Ġimper": 5227,
      "Ġbegged": 5228,
      "Ġhandle": 5229,
      "ĠYet": 5230,
      "Ġproject": 5231,
      "Ġbrain": 5232,
      "Ġ:(": 5233,
      "Ġturns": 5234,
      "icken": 5235,
      "Ġfeels": 5236,
      "Ġresolute": 5237,
      "Ġscreen": 5238,
      "Ġemploy": 5239,
      "Ġawful": 5240,
      "Ġchildish": 5241,
      "Ġskill": 5242,
      "Ġsnuff": 5243,
      "Ġabsurd": 5244,
      "Ġprepar": 5245,
      "agging": 5246,
      "Ġgives": 5247,
      "Ġavail": 5248,
      "Ġruin": 5249,
      "Ġanxiety": 5250,
      "ĠQueen": 5251,
      "Ġsatisfied": 5252,
      "uddy": 5253,
      "Ġreflected": 5254,
      "Ġthrowing": 5255,
      "Ġswayed": 5256,
      "Ġwitness": 5257,
      "Ġmovie": 5258,
      "Ġrequest": 5259,
      "Ġstruggle": 5260,
      "Ġmagician": 5261,
      "Ġintelligent": 5262,
      "Ġdistinctly": 5263,
      "Ġunnatural": 5264,
      "ĠFreem": 5265,
      "ĠYeah": 5266,
      "Ġintrodu": 5267,
      "Ġnormal": 5268,
      "ĠTimo": 5269,
      "Ġsergeant": 5270,
      "ĠArkady": 5271,
      "ĠApollonovich": 5272,
      "AT": 5273,
      "Natasha": 5274,
      "bers": 5275,
      "faced": 5276,
      "ky": 5277,
      "occup": 5278,
      "pro": 5279,
      "yl": 5280,
      "Ġwave": 5281,
      "Ġwrapped": 5282,
      "Ġorig": 5283,
      "atures": 5284,
      "Ġbill": 5285,
      "Ġbird": 5286,
      "Ġbored": 5287,
      "Ġcas": 5288,
      "Ġcher": 5289,
      "Ġcream": 5290,
      "aries": 5291,
      "Ġpress": 5292,
      "Ġpaces": 5293,
      "Ġgather": 5294,
      "lev": 5295,
      "ading": 5296,
      "ĠIl": 5297,
      "Ġbeast": 5298,
      "ids": 5299,
      "ĠTar": 5300,
      "ĠPe": 5301,
      "ĠPart": 5302,
      "ĠPapa": 5303,
      "ama": 5304,
      "Ġant": 5305,
      "ril": 5306,
      "ĠMark": 5307,
      "ĠBu": 5308,
      "ĠHope": 5309,
      "olution": 5310,
      "Ġsand": 5311,
      "ĠNove": 5312,
      "ĠNever": 5313,
      "Ġbutt": 5314,
      "apt": 5315,
      "osop": 5316,
      "Ġnoble": 5317,
      "ĠFirst": 5318,
      "Ġtrust": 5319,
      "Ġchanging": 5320,
      "ĠOut": 5321,
      "ĠOctober": 5322,
      "ĠEv": 5323,
      "rewell": 5324,
      "Ġdish": 5325,
      "ĠVil": 5326,
      "Ġthinks": 5327,
      "Ġways": 5328,
      "Ġholy": 5329,
      "ĠEmperors": 5330,
      "Ġretired": 5331,
      "Ġyounger": 5332,
      "Ġlightly": 5333,
      "Ġinfinite": 5334,
      "Ġaware": 5335,
      "Ġfinal": 5336,
      "Ġfrequ": 5337,
      "Ġmeanwhile": 5338,
      "Ġstocking": 5339,
      "Ġcondem": 5340,
      "Ġrecoll": 5341,
      "Ġadmir": 5342,
      "Ġhistoric": 5343,
      "Ġraptur": 5344,
      "Ġmidnight": 5345,
      "Ġapproach": 5346,
      "ĠWithout": 5347,
      "Ġlowered": 5348,
      "Ġformerly": 5349,
      "Ġlearn": 5350,
      "Ġcollar": 5351,
      "Ġpatri": 5352,
      "Ġfigures": 5353,
      "identally": 5354,
      "Ġdreams": 5355,
      "Ġuniforms": 5356,
      "Ġfifteen": 5357,
      "Ġengaged": 5358,
      "Ġresults": 5359,
      "Ġcitizens": 5360,
      "Ġmaids": 5361,
      "ĠAmong": 5362,
      "Ġbelonged": 5363,
      "Ġjudge": 5364,
      "Ġspiritual": 5365,
      "Ġtelephone": 5366,
      "Ġtrembled": 5367,
      "Ġharness": 5368,
      "ooping": 5369,
      "Ġdeclared": 5370,
      "Ġmelanch": 5371,
      "Ġkids": 5372,
      "Ġbriefcase": 5373,
      "Ġoccasionally": 5374,
      "Ġobserved": 5375,
      "Ġautumn": 5376,
      "Ġmillions": 5377,
      "lavsky": 5378,
      "Ġdescended": 5379,
      "Ġepisode": 5380,
      "Ġexhausted": 5381,
      "Ex": 5382,
      "nal": 5383,
      "yasha": 5384,
      "Ġwow": 5385,
      "resh": 5386,
      "Ġhounds": 5387,
      "eding": 5388,
      "Ġbay": 5389,
      "Ġbald": 5390,
      "ouis": 5391,
      "Ġtore": 5392,
      "Ġmot": 5393,
      "Ġmud": 5394,
      "Ġpred": 5395,
      "Ġpowers": 5396,
      "Ġnumb": 5397,
      "ompl": 5398,
      "Ġrear": 5399,
      "sev": 5400,
      "seen": 5401,
      "Ġhare": 5402,
      "ĠPre": 5403,
      "ĠPaul": 5404,
      "ovar": 5405,
      "ĠTheir": 5406,
      "allen": 5407,
      "Ġshade": 5408,
      "Ġshows": 5409,
      "Ġcongr": 5410,
      "Ġexample": 5411,
      "Ġvain": 5412,
      "usal": 5413,
      "Ġmyst": 5414,
      "isting": 5415,
      "istic": 5416,
      "Ġintrig": 5417,
      "Ġgover": 5418,
      "Ġwept": 5419,
      "umerable": 5420,
      "unyasha": 5421,
      "ĠðŁĺ´": 5422,
      "Ġunb": 5423,
      "ĠGreat": 5424,
      "Ġnowhere": 5425,
      "Ġblock": 5426,
      "Ġclim": 5427,
      "ĠItal": 5428,
      "Ġusing": 5429,
      "ĠThy": 5430,
      "ĠThank": 5431,
      "ĠInst": 5432,
      "Ġentertain": 5433,
      "ograp": 5434,
      "Ġobey": 5435,
      "Ġconfl": 5436,
      "intment": 5437,
      "meric": 5438,
      "Ġdresses": 5439,
      "Ġvisited": 5440,
      "Ġrecently": 5441,
      "Ġregiments": 5442,
      "oubt": 5443,
      "Ġdriven": 5444,
      "Ġmeth": 5445,
      "Ġlads": 5446,
      "Ġtrif": 5447,
      "Ġbrothers": 5448,
      "Ġvehic": 5449,
      "Ġcalmly": 5450,
      "Ġweakness": 5451,
      "Ġbarely": 5452,
      "Ġviews": 5453,
      "Ġpulling": 5454,
      "Ġstriking": 5455,
      "Ġawaited": 5456,
      "Ġamazement": 5457,
      "Ġwaist": 5458,
      "ĠIlya": 5459,
      "Ġwelfare": 5460,
      "Ġobvious": 5461,
      "Ġswaying": 5462,
      "ĠPerhaps": 5463,
      "Ġvirtue": 5464,
      "ĠSeeing": 5465,
      "Ġenergy": 5466,
      "Ġborzois": 5467,
      "Ġinterpre": 5468,
      "ĠPoplavsky": 5469,
      "ĠStepan": 5470,
      "Ġfootsteps": 5471,
      "Ġorigin": 5472,
      "ĠNovember": 5473,
      "Ġmelancholy": 5474,
      "When": 5475,
      "eur": 5476,
      "lay": 5477,
      "line": 5478,
      "molov": 5479,
      "nes": 5480,
      "ras": 5481,
      "sc": 5482,
      "sing": 5483,
      "uing": 5484,
      "Ġtempt": 5485,
      "inc": 5486,
      "Ġsought": 5487,
      "Ġbase": 5488,
      "itor": 5489,
      "itation": 5490,
      "isk": 5491,
      "Ġcred": 5492,
      "Ġcases": 5493,
      "Ġcries": 5494,
      "Ġfancy": 5495,
      "onov": 5496,
      "anin": 5497,
      "ese": 5498,
      "Ġphen": 5499,
      "othed": 5500,
      "etr": 5501,
      "Ġrank": 5502,
      "Ġribb": 5503,
      "ĠAN": 5504,
      "Ġstub": 5505,
      "Ġstars": 5506,
      "Ġnotes": 5507,
      "chine": 5508,
      "Ġate": 5509,
      "ĠMor": 5510,
      "ĠMatthew": 5511,
      "Ġsafe": 5512,
      "ĠSatur": 5513,
      "antic": 5514,
      "Ġconqu": 5515,
      "Ġsucks": 5516,
      "ĠWinst": 5517,
      "ardon": 5518,
      "Ġleaves": 5519,
      "Ġintim": 5520,
      "Ġweather": 5521,
      "ople": 5522,
      "ĠðŁĺ³": 5523,
      "ĠKan": 5524,
      "orth": 5525,
      "Ġfee": 5526,
      "place": 5527,
      "rency": 5528,
      "Ġspurs": 5529,
      "ĠLook": 5530,
      "Ġblaz": 5531,
      "Ġblushing": 5532,
      "Ġgrate": 5533,
      "ĠThursday": 5534,
      "Ġacting": 5535,
      "Ġattacked": 5536,
      "ĠOnce": 5537,
      "Ġconsisted": 5538,
      "Ġimpro": 5539,
      "Ġaccompl": 5540,
      "Ġcleared": 5541,
      "Ġcourage": 5542,
      "Ġfriendly": 5543,
      "Ġmoral": 5544,
      "Ġsurre": 5545,
      "Ġrelief": 5546,
      "Ġreluct": 5547,
      "Ġkinda": 5548,
      "Ġsnap": 5549,
      "Ġfacts": 5550,
      "Ġadmitted": 5551,
      "Ġridden": 5552,
      "ĠPavl": 5553,
      "Ġclosely": 5554,
      "Ġprevent": 5555,
      "Ġlifting": 5556,
      "Ġmemories": 5557,
      "Ġrule": 5558,
      "radnoe": 5559,
      "Ġpropos": 5560,
      "ĠTwitter": 5561,
      "Ġhatred": 5562,
      "Ġassume": 5563,
      "ĠUncle": 5564,
      "Ġinevitable": 5565,
      "Ġcapture": 5566,
      "Ġwhispering": 5567,
      "Ġconclusion": 5568,
      "Ġvalue": 5569,
      "Ġinnumerable": 5570,
      "Ġstretched": 5571,
      "Ġinquiringly": 5572,
      "Ġportrait": 5573,
      "Ġneighbor": 5574,
      "Ġrules": 5575,
      "Ġeagerly": 5576,
      "Ġweeping": 5577,
      "Ġassistant": 5578,
      "Ġelbow": 5579,
      "Ġcoffee": 5580,
      "ĠLOL": 5581,
      "Ġconcerned": 5582,
      "Ġindifferent": 5583,
      "Ġtransferred": 5584,
      "Ġdisorder": 5585,
      "Ġplatform": 5586,
      "Ġunfortunate": 5587,
      "Ġphilosop": 5588,
      "Ġabsorbed": 5589,
      "ĠPatri": 5590,
      "ĠOtradnoe": 5591,
      "Ġpatriot": 5592,
      "ĠSaturday": 5593,
      "ĠWinston": 5594,
      "ED": 5595,
      "Look": 5596,
      "ax": 5597,
      "duc": 5598,
      "give": 5599,
      "iat": 5600,
      "iot": 5601,
      "lier": 5602,
      "mlin": 5603,
      "ox": 5604,
      "rough": 5605,
      "rained": 5606,
      "uced": 5607,
      "Ã©": 5608,
      "Ġtree": 5609,
      "hether": 5610,
      "Ġhol": 5611,
      "atul": 5612,
      "Ġbuck": 5613,
      "Ġcant": 5614,
      "Ġfacing": 5615,
      "enka": 5616,
      "Ġdared": 5617,
      "Ġduel": 5618,
      "asc": 5619,
      "anim": 5620,
      "esc": 5621,
      "esp": 5622,
      "lling": 5623,
      "Ġlat": 5624,
      "Ġleng": 5625,
      "Ġpage": 5626,
      "Ġincess": 5627,
      "Ġnine": 5628,
      "Ġgrin": 5629,
      "ĠInd": 5630,
      "utino": 5631,
      "icks": 5632,
      "ider": 5633,
      "Ġyield": 5634,
      "Ġwithdra": 5635,
      "ĠTell": 5636,
      "Ġrise": 5637,
      "Ġrows": 5638,
      "ðŁĲ": 5639,
      "ĠMass": 5640,
      "Ġsea": 5641,
      "Ġseance": 5642,
      "ĠSince": 5643,
      "ĠSerene": 5644,
      "Ġshaw": 5645,
      "Ġshots": 5646,
      "ilty": 5647,
      "Ġexternal": 5648,
      "aping": 5649,
      "Ġjest": 5650,
      "ĠDuke": 5651,
      "Ġmanage": 5652,
      "Ġintent": 5653,
      "Ġcharge": 5654,
      "Ġunl": 5655,
      "Ġoffering": 5656,
      "Ġami": 5657,
      "Ġdisag": 5658,
      "Ġpride": 5659,
      "Ġgrass": 5660,
      "ĠJose": 5661,
      "Ġparts": 5662,
      "Ġscoundrel": 5663,
      "herent": 5664,
      "Ġcommands": 5665,
      "ension": 5666,
      "Ġwars": 5667,
      "Ġboot": 5668,
      "Ġcracked": 5669,
      "retched": 5670,
      "Ġinstinct": 5671,
      "ĠBehind": 5672,
      "Ġdecor": 5673,
      "Ġcurious": 5674,
      "Ġcurrency": 5675,
      "Ġrecomm": 5676,
      "Ġsleepy": 5677,
      "Ġglances": 5678,
      "Ġterribly": 5679,
      "Ġconviction": 5680,
      "Ġtrem": 5681,
      "Ġridicul": 5682,
      "Ġcale": 5683,
      "Ġposts": 5684,
      "Ġtrip": 5685,
      "Ġprepare": 5686,
      "ĠGermans": 5687,
      "Ġpainfully": 5688,
      "Ġrecognizing": 5689,
      "ĠNothing": 5690,
      "Ġmistaken": 5691,
      "Ġconcent": 5692,
      "ĠAustria": 5693,
      "Ġsurround": 5694,
      "Ġworthy": 5695,
      "Ġseparate": 5696,
      "Ġbeaten": 5697,
      "ðŁ¤ĺ": 5698,
      "Ġwhistle": 5699,
      "Ġindicated": 5700,
      "Ġcounter": 5701,
      "Ġpillow": 5702,
      "Ġbullets": 5703,
      "Ġhidden": 5704,
      "ĠErmolov": 5705,
      "ĠSometimes": 5706,
      "Ġshrie": 5707,
      "Ġwagons": 5708,
      "Ġbenefact": 5709,
      "Ġdelicate": 5710,
      "ĠKremlin": 5711,
      "Ġthroat": 5712,
      "stein": 5713,
      "Ġrosy": 5714,
      "Ġbewild": 5715,
      "Ġceremonies": 5716,
      "Ġuncomfort": 5717,
      "ĠVilna": 5718,
      "ĠPatriarch": 5719,
      "Just": 5720,
      "cuse": 5721,
      "do": 5722,
      "ger": 5723,
      "hip": 5724,
      "uously": 5725,
      "well": 5726,
      "Ġ--": 5727,
      "Ġwing": 5728,
      "Ġhay": 5729,
      "Ġhoofs": 5730,
      "Ġbore": 5731,
      "Ġbust": 5732,
      "oups": 5733,
      "itch": 5734,
      "Ġcult": 5735,
      "Ġcute": 5736,
      "Ġfolk": 5737,
      "Ġthunder": 5738,
      "Ġhey": 5739,
      "Ġinner": 5740,
      "Ġgar": 5741,
      "lyanin": 5742,
      "Ġreb": 5743,
      "Ġreck": 5744,
      "Ġreward": 5745,
      "ĠAmeric": 5746,
      "ðŁĮ": 5747,
      "ooo": 5748,
      "Ġhers": 5749,
      "ĠMak": 5750,
      "ĠBea": 5751,
      "Ġsem": 5752,
      "Ġsear": 5753,
      "Ġsaving": 5754,
      "ĠSim": 5755,
      "ĠSam": 5756,
      "ĠSemen": 5757,
      "ĠNiz": 5758,
      "Ġdeed": 5759,
      "Ġexception": 5760,
      "elf": 5761,
      "ĠReg": 5762,
      "Ġaloud": 5763,
      "ulted": 5764,
      "ĠAndree": 5765,
      "Ġaroused": 5766,
      "ĠCol": 5767,
      "ĠCap": 5768,
      "Ġmanif": 5769,
      "Ġmanagement": 5770,
      "Ġtrick": 5771,
      "umin": 5772,
      "Ġunus": 5773,
      "Ġunless": 5774,
      "ittered": 5775,
      "Ġspark": 5776,
      "ĠLM": 5777,
      "ĠLouis": 5778,
      "Ġclerk": 5779,
      "this": 5780,
      "Ġproof": 5781,
      "Ġremains": 5782,
      "Ġgrad": 5783,
      "Ġench": 5784,
      "Ġmachine": 5785,
      "Ġapply": 5786,
      "evil": 5787,
      "ĠThus": 5788,
      "Ġthrust": 5789,
      "Ġdesired": 5790,
      "Ġguys": 5791,
      "Ġguilty": 5792,
      "ĠIvanushka": 5793,
      "attering": 5794,
      "Ġexpressing": 5795,
      "Ġanswering": 5796,
      "Ġdistr": 5797,
      "Ġsounded": 5798,
      "ĠUnder": 5799,
      "gging": 5800,
      "Ġfires": 5801,
      "Ġesaul": 5802,
      "Ġrecord": 5803,
      "Ġminister": 5804,
      "Ġmonarch": 5805,
      "ĠChapter": 5806,
      "Ġmerrily": 5807,
      "Ġdeterm": 5808,
      "fortune": 5809,
      "Ġphr": 5810,
      "board": 5811,
      "Ġcele": 5812,
      "Ġtransport": 5813,
      "Ġforgetting": 5814,
      "Ġconcerning": 5815,
      "Ġconstit": 5816,
      "Ġspirits": 5817,
      "Ġequal": 5818,
      "Ġmisfortune": 5819,
      "Ġconnected": 5820,
      "Ġmasses": 5821,
      "ðŁĳĢ": 5822,
      "elessly": 5823,
      "Ġperformed": 5824,
      "Ġdeserted": 5825,
      "Ġveranda": 5826,
      "Ġmurm": 5827,
      "Ġdeliber": 5828,
      "Ġcontradict": 5829,
      "Ġcampfires": 5830,
      "Ġperplexity": 5831,
      "ĠPrussia": 5832,
      "Ġfulfill": 5833,
      "Ġdrinking": 5834,
      "Ġwedding": 5835,
      "ĠSunday": 5836,
      "ĠTarutino": 5837,
      "ĠItalian": 5838,
      "Ġinterpreter": 5839,
      "Ġphenomen": 5840,
      "AO": 5841,
      "Be": 5842,
      "EA": 5843,
      "Of": 5844,
      "cause": 5845,
      "house": 5846,
      "ique": 5847,
      "lt": 5848,
      "looking": 5849,
      "sed": 5850,
      "uish": 5851,
      "Ġ@": 5852,
      "Ġack": 5853,
      "insh": 5854,
      "Ġwake": 5855,
      "Ġwtf": 5856,
      "erve": 5857,
      "Ġbass": 5858,
      "Ġfier": 5859,
      "orough": 5860,
      "ana": 5861,
      "Ġlarg": 5862,
      "stra": 5863,
      "Ġrate": 5864,
      "ooked": 5865,
      "amation": 5866,
      "acher": 5867,
      "ĠBoth": 5868,
      "Ġsev": 5869,
      "Ġselect": 5870,
      "ĠðŁĨ": 5871,
      "Ġwheel": 5872,
      "ĠCom": 5873,
      "ĠCont": 5874,
      "ĠFer": 5875,
      "Ġintently": 5876,
      "atever": 5877,
      "Ġweight": 5878,
      "Ġrole": 5879,
      "unning": 5880,
      "ĠðŁĺ¬": 5881,
      "ĠðŁĺİ": 5882,
      "ĠðŁĺĳ": 5883,
      "Ġworks": 5884,
      "Ġunha": 5885,
      "ĠOther": 5886,
      "ĠKiev": 5887,
      "Ġpreoccup": 5888,
      "arest": 5889,
      "Ġbrows": 5890,
      "Ġfled": 5891,
      "Ġflour": 5892,
      "skoy": 5893,
      "Ġshouldn": 5894,
      "rubet": 5895,
      "Ġcompared": 5896,
      "Ġgreatly": 5897,
      "Ġsudden": 5898,
      "Ġkey": 5899,
      "Ġbattles": 5900,
      "Ġdistant": 5901,
      "Ġterr": 5902,
      "Ġloaded": 5903,
      "Ġchildhood": 5904,
      "Ġstopping": 5905,
      "Ġdirections": 5906,
      "Ġfootmen": 5907,
      "Ġsigns": 5908,
      "Ġdelay": 5909,
      "iverse": 5910,
      "Ġdispositions": 5911,
      "conom": 5912,
      "Ġnaive": 5913,
      "Ġuseful": 5914,
      "Ġanimation": 5915,
      "Ġbrightly": 5916,
      "ĠShinsh": 5917,
      "Ġbringing": 5918,
      "Ġlouder": 5919,
      "Ġarrange": 5920,
      "Ġduties": 5921,
      "Ġteach": 5922,
      "Ġanxiously": 5923,
      "Ġplainly": 5924,
      "ĠUnivers": 5925,
      "Ġmentally": 5926,
      "Ġwax": 5927,
      "Ġessence": 5928,
      "poral": 5929,
      "Ġstationed": 5930,
      "Ġdiplomatic": 5931,
      "Ġdesperate": 5932,
      "ĠTelyanin": 5933,
      "Ġreligion": 5934,
      "Ġbodies": 5935,
      "Ġclinic": 5936,
      "Ġuncomfortable": 5937,
      "Ġacknow": 5938,
      "Count": 5939,
      "Please": 5940,
      "Tell": 5941,
      "US": 5942,
      "UCK": 5943,
      "With": 5944,
      "bb": 5945,
      "cst": 5946,
      "ciously": 5947,
      "lans": 5948,
      "ped": 5949,
      "post": 5950,
      "rade": 5951,
      "sm": 5952,
      "ture": 5953,
      "uu": 5954,
      "wy": 5955,
      "âĿ¤ï¸ı": 5956,
      "Ġ;": 5957,
      "Ġze": 5958,
      "Ġtent": 5959,
      "Ġtur": 5960,
      "Ġtour": 5961,
      "Ġtongue": 5962,
      "Ġoak": 5963,
      "erri": 5964,
      "atching": 5965,
      "Ġcell": 5966,
      "Ġmild": 5967,
      "Ġdashed": 5968,
      "orious": 5969,
      "orable": 5970,
      "arski": 5971,
      "Ġpil": 5972,
      "Ġgra": 5973,
      "Ġgroom": 5974,
      "utor": 5975,
      "Ġecst": 5976,
      "Ġrese": 5977,
      "ether": 5978,
      "alities": 5979,
      "Ġrow": 5980,
      "Ġrough": 5981,
      "Ġstared": 5982,
      "ams": 5983,
      "ament": 5984,
      "ĠMod": 5985,
      "ĠHella": 5986,
      "ĠðŁ«": 5987,
      "ĠðŁĩ": 5988,
      "illy": 5989,
      "ĠWH": 5990,
      "ĠWas": 5991,
      "ĠWang": 5992,
      "aging": 5993,
      "Ġviv": 5994,
      "ĠRed": 5995,
      "oses": 5996,
      "ĠDunyasha": 5997,
      "ĠðŁĺı": 5998,
      "ĠðŁĺľ": 5999,
      "Ġloose": 6000,
      "asty": 6001,
      "ountain": 6002,
      "ĠKa": 6003,
      "Ġfeatures": 6004,
      "Ġanyway": 6005,
      "Ġprecious": 6006,
      "Ġseek": 6007,
      "Ġproceed": 6008,
      "Ġprogress": 6009,
      "ðŁĺĬ": 6010,
      "ĠRostova": 6011,
      "ĠThree": 6012,
      "ĠShevard": 6013,
      "Ġcomplex": 6014,
      "uzz": 6015,
      "Ġrepuls": 6016,
      "Ġmarrying": 6017,
      "Ġslipp": 6018,
      "Ġslipped": 6019,
      "teenth": 6020,
      "ograd": 6021,
      "Ġchecked": 6022,
      "Ġconfident": 6023,
      "HAT": 6024,
      "ĠUS": 6025,
      "Ġcrowds": 6026,
      "Ġhalted": 6027,
      "ucked": 6028,
      "ivering": 6029,
      "Ġstrangely": 6030,
      "Ġchairs": 6031,
      "Ġvillages": 6032,
      "Ġcircles": 6033,
      "Ġsorts": 6034,
      "Ġlift": 6035,
      "Ġprofound": 6036,
      "Ġdoubts": 6037,
      "ĠSomeone": 6038,
      "Ġopinions": 6039,
      "Ġarrang": 6040,
      "Ġlanding": 6041,
      "Ġconnect": 6042,
      "Ġcomplain": 6043,
      "Ġbasement": 6044,
      "Ġrolling": 6045,
      "Ġbottom": 6046,
      "Ġicons": 6047,
      "Ġamazed": 6048,
      "turov": 6049,
      "Ġtreated": 6050,
      "Ġpicture": 6051,
      "Ġmurd": 6052,
      "Ġdeceased": 6053,
      "Ġdismounted": 6054,
      "Ġprotect": 6055,
      "Ġsobbing": 6056,
      "Ġsprang": 6057,
      "Ġgods": 6058,
      "ĠWillarski": 6059,
      "Ġencoun": 6060,
      "Ġsleeve": 6061,
      "Ġsports": 6062,
      "Ġbirthday": 6063,
      "Ġmingled": 6064,
      "Ġinsignificant": 6065,
      "Ġsummoned": 6066,
      "ĠTimokhin": 6067,
      "Ġcongratul": 6068,
      "Ġmethod": 6069,
      "ĠPavlograd": 6070,
      "ĠJoseph": 6071,
      "Ġcaleche": 6072,
      "ĠMakar": 6073,
      "ĠAndreevich": 6074,
      "Ġmanifest": 6075,
      "ĠShinshin": 6076,
      "ĠShevardino": 6077,
      "\"--": 6078,
      "An": 6079,
      "At": 6080,
      "Le": 6081,
      "May": 6082,
      "Mamma": 6083,
      "OS": 6084,
      "Will": 6085,
      "down": 6086,
      "ipping": 6087,
      "kind": 6088,
      "mpt": 6089,
      "pit": 6090,
      "pen": 6091,
      "sha": 6092,
      "there": 6093,
      "ºï¸ı": 6094,
      "à¤": 6095,
      "Ġident": 6096,
      "ĥ£": 6097,
      "Ġtact": 6098,
      "Ġhated": 6099,
      "edy": 6100,
      "atory": 6101,
      "Ġbag": 6102,
      "Ġbowing": 6103,
      "Ġfurn": 6104,
      "Ġmater": 6105,
      "asy": 6106,
      "Ġheels": 6107,
      "Ġpuck": 6108,
      "Ġpaced": 6109,
      "Ġpink": 6110,
      "ley": 6111,
      "Ġthats": 6112,
      "Ġwhip": 6113,
      "vey": 6114,
      "Ġratt": 6115,
      "Ġasso": 6116,
      "amb": 6117,
      "ĠHallow": 6118,
      "Ġsees": 6119,
      "Ġsearch": 6120,
      "ĠST": 6121,
      "Ġbutton": 6122,
      "Ġsheep": 6123,
      "Ġdeaf": 6124,
      "ĠDrubet": 6125,
      "Ġtruck": 6126,
      "Ġchain": 6127,
      "Ġchamp": 6128,
      "unn": 6129,
      "ĠðŁĺ¢": 6130,
      "ĠðŁĺķ": 6131,
      "Ġtimid": 6132,
      "ĠKal": 6133,
      "pled": 6134,
      "Ġtables": 6135,
      "itty": 6136,
      "Ġadop": 6137,
      "Ġprete": 6138,
      "Ġprefer": 6139,
      "Ġjustice": 6140,
      "Ġseeking": 6141,
      "Ġdownstairs": 6142,
      "iving": 6143,
      "Ġflung": 6144,
      "Ġreminded": 6145,
      "Ġgroups": 6146,
      "Ġappears": 6147,
      "rue": 6148,
      "Ġgoodness": 6149,
      "ĠThrough": 6150,
      "anches": 6151,
      "Ġacted": 6152,
      "Ġparties": 6153,
      "Ġpartner": 6154,
      "Ġconsol": 6155,
      "Ġdesign": 6156,
      "Ġmarched": 6157,
      "Ġ100": 6158,
      "Ġobst": 6159,
      "Ġnights": 6160,
      "Ġdifference": 6161,
      "Ġrestrain": 6162,
      "Ġadvancing": 6163,
      "Ġdrops": 6164,
      "Ġsadly": 6165,
      "ozh": 6166,
      "Ġreplying": 6167,
      "Ġhundreds": 6168,
      "Ġpurse": 6169,
      "Ġmilitia": 6170,
      "Thank": 6171,
      "Ġmember": 6172,
      "Ġpaying": 6173,
      "ĠMaxim": 6174,
      "Ġconstantly": 6175,
      "Ġwooden": 6176,
      "Ġhoped": 6177,
      "Ġearlier": 6178,
      "Ġkilling": 6179,
      "ĠGovern": 6180,
      "Ġentrusted": 6181,
      "Ġamazing": 6182,
      "Ġconceal": 6183,
      "ĠSept": 6184,
      "Ġfailed": 6185,
      "Ġboldly": 6186,
      "Ġexchanged": 6187,
      "ĠSomething": 6188,
      "ĠMinister": 6189,
      "hearted": 6190,
      "Ġestablished": 6191,
      "Ġcivil": 6192,
      "Ġelderly": 6193,
      "Ġshrugged": 6194,
      "Ġcritic": 6195,
      "Ġwiped": 6196,
      "Ġeducation": 6197,
      "Ġresponsibility": 6198,
      "Ġdissatisfied": 6199,
      "Ġenthusias": 6200,
      "ï¸ıâĥ£": 6201,
      "hetor": 6202,
      "Ġdegree": 6203,
      "Ġuhlans": 6204,
      "Ġsnuffbox": 6205,
      "Ġassoci": 6206,
      "ĠHalloween": 6207,
      "Ġpretext": 6208,
      "Eh": 6209,
      "ban": 6210,
      "fast": 6211,
      "fessor": 6212,
      "oked": 6213,
      "rat": 6214,
      "some": 6215,
      "zh": 6216,
      "zri": 6217,
      "ĮðŁı½": 6218,
      "Ġsam": 6219,
      "Ġwand": 6220,
      "Ġbree": 6221,
      "Ġbrave": 6222,
      "Ġder": 6223,
      "orous": 6224,
      "Ġthorough": 6225,
      "lled": 6226,
      "Ġlack": 6227,
      "Ġlunch": 6228,
      "Ġnasty": 6229,
      "Ġgy": 6230,
      "Ġgained": 6231,
      "ads": 6232,
      "uts": 6233,
      "uten": 6234,
      "icing": 6235,
      "Ġreign": 6236,
      "Ġrout": 6237,
      "Ġstolen": 6238,
      "Ġstalls": 6239,
      "Ġasks": 6240,
      "chan": 6241,
      "ovsk": 6242,
      "acle": 6243,
      "ĠMY": 6244,
      "ĠMal": 6245,
      "ĠMav": 6246,
      "ĠMason": 6247,
      "Ġseizing": 6248,
      "ifying": 6249,
      "Ġfroz": 6250,
      "Ġalt": 6251,
      "iece": 6252,
      "open": 6253,
      "Ġtrace": 6254,
      "umed": 6255,
      "Ġchicken": 6256,
      "unsky": 6257,
      "ĠðŁĺ¤": 6258,
      "Ġworry": 6259,
      "Ġunne": 6260,
      "Ġuncle": 6261,
      "Ġfeast": 6262,
      "ĠLove": 6263,
      "ĠLise": 6264,
      "Ġcloth": 6265,
      "Ġclock": 6266,
      "Ġdispl": 6267,
      "Ġbrisk": 6268,
      "ĠVery": 6269,
      "Ġcontem": 6270,
      "eves": 6271,
      "khturov": 6272,
      "Ġactive": 6273,
      "Ġparted": 6274,
      "ĠEmpress": 6275,
      "Ġnewly": 6276,
      "Ġretire": 6277,
      "Ġmarching": 6278,
      "ogether": 6279,
      "Ġpersu": 6280,
      "Ġcorn": 6281,
      "Ġcorporal": 6282,
      "Ġswift": 6283,
      "Ġlock": 6284,
      "Ġrelated": 6285,
      "Ġdecide": 6286,
      "Ġinsane": 6287,
      "Ġrestless": 6288,
      "Ġadvised": 6289,
      "Nozri": 6290,
      "Ġmoist": 6291,
      "Ġexplaining": 6292,
      "Ġhurrying": 6293,
      "Ġdevotion": 6294,
      "apsed": 6295,
      "Ġartic": 6296,
      "uga": 6297,
      "Ġnewsp": 6298,
      "Ġprompt": 6299,
      "Ġpatient": 6300,
      "Ġdisappear": 6301,
      "ĠDokhturov": 6302,
      "Ġrubbed": 6303,
      "Ġrubbing": 6304,
      "Ġsending": 6305,
      "Ġconstant": 6306,
      "Ġprovin": 6307,
      "Ġagreeable": 6308,
      "Ġsignificantly": 6309,
      "Ġsufferings": 6310,
      "Ġguessed": 6311,
      "Ġmedic": 6312,
      "Ġdragoons": 6313,
      "Ġindicating": 6314,
      "works": 6315,
      "Ġeldest": 6316,
      "Ġlucky": 6317,
      "Nothing": 6318,
      "Ġwriters": 6319,
      "Ġbells": 6320,
      "Ġabandoning": 6321,
      "Ġshadow": 6322,
      "Ġshadows": 6323,
      "Ġembarrassed": 6324,
      "Ġresolved": 6325,
      "Ġclutching": 6326,
      "Ġvexation": 6327,
      "Ġmagnanim": 6328,
      "Ġargument": 6329,
      "Ġauthorities": 6330,
      "Ġtickets": 6331,
      "Ġirresist": 6332,
      "Ġobservation": 6333,
      "Ġnumbers": 6334,
      "Ġlength": 6335,
      "Ġsearching": 6336,
      "Ġgradually": 6337,
      "Ġterrace": 6338,
      "ĠUniversity": 6339,
      "ĠKaluga": 6340,
      "ĠSeptember": 6341,
      "Ġenthusiasm": 6342,
      "Ġunnecess": 6343,
      "Did": 6344,
      "Dear": 6345,
      "From": 6346,
      "Qu": 6347,
      "Wait": 6348,
      "bar": 6349,
      "bility": 6350,
      "four": 6351,
      "gar": 6352,
      "ium": 6353,
      "iated": 6354,
      "oi": 6355,
      "oot": 6356,
      "Ġwise": 6357,
      "Ġwaking": 6358,
      "Ġoil": 6359,
      "Ġded": 6360,
      "Ġdamp": 6361,
      "Ġdense": 6362,
      "asim": 6363,
      "lly": 6364,
      "Ġloves": 6365,
      "Ġpas": 6366,
      "Ġpacing": 6367,
      "Ġgently": 6368,
      "icule": 6369,
      "âĢį": 6370,
      "Ġassembled": 6371,
      "irts": 6372,
      "ĠPh": 6373,
      "âĢĻ,": 6374,
      "Ġancient": 6375,
      "ĠMet": 6376,
      "ĠHard": 6377,
      "olit": 6378,
      "alley": 6379,
      "ifa": 6380,
      "ĠðŁĪ": 6381,
      "Ġshif": 6382,
      "ichna": 6383,
      "rose": 6384,
      "Ġshel": 6385,
      "Ġsus": 6386,
      "Ġvous": 6387,
      "Ġvide": 6388,
      "osure": 6389,
      "ĠFin": 6390,
      "Ġcomb": 6391,
      "oph": 6392,
      "Ġtrap": 6393,
      "Ġtrump": 6394,
      "unken": 6395,
      "ĠðŁĺģ": 6396,
      "ĠðŁĺĲ": 6397,
      "Ġunre": 6398,
      "astic": 6399,
      "ĠOptim": 6400,
      "Ġamused": 6401,
      "Ġbliss": 6402,
      "ðŁĺģ": 6403,
      "Ġpond": 6404,
      "Ġbranches": 6405,
      "ĠVyaz": 6406,
      "Ġappl": 6407,
      "Ġattain": 6408,
      "Ġpartic": 6409,
      "Ġscene": 6410,
      "Ġlovely": 6411,
      "Ġcommanding": 6412,
      "Ġassure": 6413,
      "Ġcatching": 6414,
      "Ġdrunken": 6415,
      "Ġterms": 6416,
      "Ġlofty": 6417,
      "Ġsentence": 6418,
      "ĠSoon": 6419,
      "Ġlegit": 6420,
      "Ġmob": 6421,
      "Ġcontract": 6422,
      "Ġraise": 6423,
      "Ġbushes": 6424,
      "Ġcareer": 6425,
      "Ġmerch": 6426,
      "ĠArbat": 6427,
      "ĠGerasim": 6428,
      "Ġburden": 6429,
      "Ġphot": 6430,
      "Ġexists": 6431,
      "Ġstrongly": 6432,
      "Ġacquain": 6433,
      "Ġdivine": 6434,
      "Ġhaste": 6435,
      "Ġhastened": 6436,
      "Ġretreating": 6437,
      "Ġhopes": 6438,
      "Ġsignificant": 6439,
      "Ġchoir": 6440,
      "Ġcheckered": 6441,
      "Ġdepends": 6442,
      "Ġissued": 6443,
      "Ġcovering": 6444,
      "Ġcenturion": 6445,
      "Ġapproval": 6446,
      "Ġlilac": 6447,
      "Ġelectric": 6448,
      "Ġpractical": 6449,
      "Ġrevealed": 6450,
      "Ġfeverish": 6451,
      "Ġsucceeded": 6452,
      "Prince": 6453,
      "Ġdefeat": 6454,
      "ðŁĶ¥": 6455,
      "Ġuniversal": 6456,
      "Ġlmfao": 6457,
      "Ġmaneu": 6458,
      "ĠIlagin": 6459,
      "ĠParty": 6460,
      "ĠBuonaparte": 6461,
      "ĠEvidently": 6462,
      "Ġcondemned": 6463,
      "Ġrecollection": 6464,
      "Ġridiculous": 6465,
      "Ġbenefactor": 6466,
      "Ġcelebr": 6467,
      "Ġunhappy": 6468,
      "ĠKaifa": 6469,
      "Ġmaterial": 6470,
      "utenant": 6471,
      "AR": 6472,
      "Ch": 6473,
      "Re": 6474,
      "finite": 6475,
      "kers": 6476,
      "nik": 6477,
      "obe": 6478,
      "rd": 6479,
      "rors": 6480,
      "sis": 6481,
      "tr": 6482,
      "tle": 6483,
      "yle": 6484,
      "year": 6485,
      "¹ï¸ı": 6486,
      "Ġ/": 6487,
      "Ġ=": 6488,
      "Ġtipt": 6489,
      "Ġaid": 6490,
      "Ġach": 6491,
      "inent": 6492,
      "Ġsna": 6493,
      "Ġwid": 6494,
      "Ġwings": 6495,
      "Ġfaster": 6496,
      "Ġmant": 6497,
      "Ġpardon": 6498,
      "Ġinex": 6499,
      "Ġnames": 6500,
      "adet": 6501,
      "Ġbending": 6502,
      "idel": 6503,
      "see": 6504,
      "aysk": 6505,
      "Ġrandom": 6506,
      "ĠAu": 6507,
      ".....": 6508,
      "rier": 6509,
      "riend": 6510,
      "ĠMit": 6511,
      "ĠMozh": 6512,
      "ĠBE": 6513,
      "ĠHu": 6514,
      "ĠHim": 6515,
      "ols": 6516,
      "Ġsex": 6517,
      "Ġsav": 6518,
      "ils": 6519,
      "Ġmeat": 6520,
      "Ġmechan": 6521,
      "Ġexer": 6522,
      "Ġexper": 6523,
      "quet": 6524,
      "usset": 6525,
      "eman": 6526,
      "Ġorche": 6527,
      "ulous": 6528,
      "ulting": 6529,
      "umes": 6530,
      "ĠðŁĺĮ": 6531,
      "oday": 6532,
      "ĠON": 6533,
      "itect": 6534,
      "Ġfeather": 6535,
      "ours": 6536,
      "Ġspur": 6537,
      "Ġclosing": 6538,
      "Ġcoinc": 6539,
      "ĠIts": 6540,
      "Ġflat": 6541,
      "Ġflowed": 6542,
      "Ġafterno": 6543,
      "atted": 6544,
      "Ġactual": 6545,
      "Ġattached": 6546,
      "Ġscattered": 6547,
      "Ġentreat": 6548,
      "Ġcommanded": 6549,
      "ube": 6550,
      "Ġ15": 6551,
      "ogen": 6552,
      "Ġsleeves": 6553,
      "Ġcourte": 6554,
      "Ġdistract": 6555,
      "Ġawak": 6556,
      "Ġdrum": 6557,
      "Ġsmilingly": 6558,
      "ĠðŁ¤Ĺ": 6559,
      "Ġsooner": 6560,
      "ĠâĽ": 6561,
      "jected": 6562,
      "itsyn": 6563,
      "Ġdropping": 6564,
      "Ġroads": 6565,
      "Ġjoyous": 6566,
      "iveness": 6567,
      "Ġarrive": 6568,
      "conf": 6569,
      "Ġpurple": 6570,
      "Ġmistress": 6571,
      "aneously": 6572,
      "Ġcease": 6573,
      "Ġdiscovered": 6574,
      "Ġmuttering": 6575,
      "Ġdecidedly": 6576,
      "Ġfarewell": 6577,
      "Ġprayed": 6578,
      "Ġdiam": 6579,
      "Ġprovisions": 6580,
      "Ġtemper": 6581,
      "Ġequally": 6582,
      "Ġhahaha": 6583,
      "Ġcouch": 6584,
      "Ġtones": 6585,
      "Ġbreakfast": 6586,
      "Ġhunting": 6587,
      "ĠBezukhova": 6588,
      "Ġenjoyed": 6589,
      "ooped": 6590,
      "Ġtwitter": 6591,
      "Ġtwitched": 6592,
      "Ġpictures": 6593,
      "Ġissues": 6594,
      "Ġconfirm": 6595,
      "Ġlabor": 6596,
      "Ġbullet": 6597,
      "Ġmarshals": 6598,
      "Ġbattalions": 6599,
      "Ġgreeting": 6600,
      "Ġenerget": 6601,
      "Ġgroan": 6602,
      "Ġcommission": 6603,
      "Ġarguments": 6604,
      "Ġsuperior": 6605,
      "Ġpolitely": 6606,
      "ĠPlaton": 6607,
      "Ġcommunic": 6608,
      "Ġhelpless": 6609,
      "Ġstockings": 6610,
      "nesday": 6611,
      "Ġimprove": 6612,
      "ĠBeausset": 6613,
      "Ġpreoccupied": 6614,
      "ĠMavra": 6615,
      "Ġunnecessary": 6616,
      "Ġtiptoe": 6617,
      "ĠMozhaysk": 6618,
      "Ġorchestra": 6619,
      "Ġafternoon": 6620,
      "Give": 6621,
      "apped": 6622,
      "bid": 6623,
      "gt": 6624,
      "his": 6625,
      "iest": 6626,
      "kets": 6627,
      "mar": 6628,
      "po": 6629,
      "pond": 6630,
      "tz": 6631,
      "Ġvel": 6632,
      "Ġtiny": 6633,
      "heard": 6634,
      "Ġarose": 6635,
      "Ġsize": 6636,
      "ednesday": 6637,
      "Ġban": 6638,
      "Ġbuff": 6639,
      "iter": 6640,
      "itals": 6641,
      "isp": 6642,
      "Ġfaint": 6643,
      "ork": 6644,
      "esome": 6645,
      "Ġlately": 6646,
      "Ġps": 6647,
      "oms": 6648,
      "omed": 6649,
      "Ġgrave": 6650,
      "ĠId": 6651,
      "Ġbees": 6652,
      "utz": 6653,
      "Ġeternal": 6654,
      "Ġwass": 6655,
      "eter": 6656,
      "ĠToward": 6657,
      "Ġroofs": 6658,
      "Ġstamp": 6659,
      "chagin": 6660,
      "eresh": 6661,
      "ĠME": 6662,
      "oles": 6663,
      "ĠSuch": 6664,
      "Ġshape": 6665,
      "ighted": 6666,
      "ĠWhether": 6667,
      "elve": 6668,
      "Ġvast": 6669,
      "ĠRam": 6670,
      "ĠRev": 6671,
      "ĠRoman": 6672,
      "ĠRhetor": 6673,
      "Ġalike": 6674,
      "Ġknocked": 6675,
      "ĠDim": 6676,
      "ĠCle": 6677,
      "ĠCong": 6678,
      "isten": 6679,
      "ĠFl": 6680,
      "Ġleaped": 6681,
      "Ġcomrade": 6682,
      "Ġroar": 6683,
      "Ġworried": 6684,
      "ĠKras": 6685,
      "Ġanymore": 6686,
      "ĠYu": 6687,
      "Ġprocl": 6688,
      "Ġdisco": 6689,
      "Ġdishes": 6690,
      "Ġremaining": 6691,
      "Ġgrim": 6692,
      "Ġglow": 6693,
      "Ġolder": 6694,
      "ĠJe": 6695,
      "atherine": 6696,
      "Ġours": 6697,
      "Ġrespected": 6698,
      "Ġstrang": 6699,
      "shal": 6700,
      "Ġcalls": 6701,
      "Ġdoorman": 6702,
      "Ġbeloved": 6703,
      "Ġhorrif": 6704,
      "Ġconfess": 6705,
      "Ġcorres": 6706,
      "Ġinstit": 6707,
      "Ġbroom": 6708,
      "Ġdragging": 6709,
      "ints": 6710,
      "Ġfollows": 6711,
      "Ġfinishing": 6712,
      "Ġchildlike": 6713,
      "Ġsubs": 6714,
      "Ġdefense": 6715,
      "Ġrecon": 6716,
      "ounced": 6717,
      "Ġsnatched": 6718,
      "Ġhumili": 6719,
      "Ġhighroad": 6720,
      "Ġdevoted": 6721,
      "oubles": 6722,
      "Ġpowerful": 6723,
      "Ġterrif": 6724,
      "Ġirony": 6725,
      "Ġconversations": 6726,
      "Ġrecover": 6727,
      "Ġcareful": 6728,
      "Ġsadd": 6729,
      "Ġmissing": 6730,
      "ĠAlexandrovich": 6731,
      "Ġprayers": 6732,
      "Ġaccounts": 6733,
      "Ġsolitude": 6734,
      "Ġborn": 6735,
      "Ġmajestic": 6736,
      "ĠHillary": 6737,
      "Ġsettle": 6738,
      "Ġinevitably": 6739,
      "Ġgateway": 6740,
      "Ġproduct": 6741,
      "Ġmessage": 6742,
      "Ġannounce": 6743,
      "Ġmedia": 6744,
      "Ġexamining": 6745,
      "Ġcomfortable": 6746,
      "Ġinnoc": 6747,
      "Ġhostile": 6748,
      "Ġstretcher": 6749,
      "ĠMean": 6750,
      "Ġlimit": 6751,
      "Ġâĺºï¸ı": 6752,
      "ĠHaha": 6753,
      "Ġdiscussion": 6754,
      "Ġattracted": 6755,
      "Ġproblems": 6756,
      "Ġwriter": 6757,
      "Ġtotal": 6758,
      "Ġdiplomat": 6759,
      "Ġastonishment": 6760,
      "Ġelbows": 6761,
      "Ġcollective": 6762,
      "Ġobtained": 6763,
      "Ġlodge": 6764,
      "Ġwealthy": 6765,
      "Ġrarely": 6766,
      "Ġverses": 6767,
      "plicity": 6768,
      "ĠKuzminichna": 6769,
      "Ġhuntsman": 6770,
      "Ġapolog": 6771,
      "Ġflooded": 6772,
      "ĠFreemason": 6773,
      "ĠPeople": 6774,
      "Ġconflict": 6775,
      "Ġcredit": 6776,
      "ĠAND": 6777,
      "Ġgrateful": 6778,
      "espite": 6779,
      "Ġdisagree": 6780,
      "Ġvividly": 6781,
      "ereshchagin": 6782,
      "Ġcorrespond": 6783,
      "AS": 6784,
      "Every": 6785,
      "Nicholas": 6786,
      "Sonya": 6787,
      "back": 6788,
      "fold": 6789,
      "gs": 6790,
      "gin": 6791,
      "iath": 6792,
      "lers": 6793,
      "pire": 6794,
      "rum": 6795,
      "vorov": 6796,
      "whe": 6797,
      "woman": 6798,
      "zogen": 6799,
      "Ġtil": 6800,
      "Ġtips": 6801,
      "inking": 6802,
      "Ġsar": 6803,
      "Ġsource": 6804,
      "Ġwond": 6805,
      "rees": 6806,
      "Ġhoney": 6807,
      "erves": 6808,
      "oule": 6809,
      "oust": 6810,
      "Ġcouri": 6811,
      "Ġmap": 6812,
      "Ġmile": 6813,
      "Ġmix": 6814,
      "Ġdimin": 6815,
      "orld": 6816,
      "Ġlots": 6817,
      "Ġpose": 6818,
      "Ġpush": 6819,
      "Ġinco": 6820,
      "Ġnarr": 6821,
      "omy": 6822,
      "omorrow": 6823,
      "Ġbeating": 6824,
      "uting": 6825,
      "Ġeconom": 6826,
      "Ġrever": 6827,
      "Ġreass": 6828,
      "cember": 6829,
      "ĠTake": 6830,
      "Ġroubles": 6831,
      "ĠPel": 6832,
      "Ġforth": 6833,
      "ĠMack": 6834,
      "ĠBet": 6835,
      "Ġseats": 6836,
      "Ġsaf": 6837,
      "ĠSte": 6838,
      "ĠNOT": 6839,
      "Ġmead": 6840,
      "rod": 6841,
      "ands": 6842,
      "Ġsusp": 6843,
      "ersed": 6844,
      "Ġneat": 6845,
      "Ġdozen": 6846,
      "ĠWait": 6847,
      "ĠWednesday": 6848,
      "eling": 6849,
      "agr": 6850,
      "agged": 6851,
      "Ġvice": 6852,
      "usse": 6853,
      "ems": 6854,
      "emember": 6855,
      "Ġorgan": 6856,
      "ĠRep": 6857,
      "ĠRyaz": 6858,
      "ulation": 6859,
      "ĠData": 6860,
      "ĠChen": 6861,
      "ĠComp": 6862,
      "ĠCatherine": 6863,
      "Ġnope": 6864,
      "Ġabst": 6865,
      "Ġmankind": 6866,
      "ateg": 6867,
      "Ġchin": 6868,
      "Ġquit": 6869,
      "raw": 6870,
      "ĠEn": 6871,
      "Ġlikely": 6872,
      "Ġspin": 6873,
      "Ġpregn": 6874,
      "Ġproc": 6875,
      "Ġovercoat": 6876,
      "Ġdisg": 6877,
      "Ġdisci": 6878,
      "Ġdiscon": 6879,
      "uding": 6880,
      "Ġbrown": 6881,
      "Ġflames": 6882,
      "Ġflowers": 6883,
      "Ġgrat": 6884,
      "Ġgrace": 6885,
      "Ġgracious": 6886,
      "Ġapplic": 6887,
      "Ġappeal": 6888,
      "ageya": 6889,
      "Ġattacking": 6890,
      "issa": 6891,
      "Ġimpr": 6892,
      "Ġpermission": 6893,
      "Ġslip": 6894,
      "Ġslender": 6895,
      "Ġcapacity": 6896,
      "Ġanswers": 6897,
      "Ġperspir": 6898,
      "Ġcrims": 6899,
      "Ġawesome": 6900,
      "ĠState": 6901,
      "Ġoccurs": 6902,
      "Ġaffect": 6903,
      "Ġresting": 6904,
      "Ġsubm": 6905,
      "Ġdirector": 6906,
      "ĠðŁĴķ": 6907,
      "Ġcurly": 6908,
      "Ġspeaker": 6909,
      "ĠWolzogen": 6910,
      "Ġenemies": 6911,
      "Ġjoking": 6912,
      "ĠðŁĻĤ": 6913,
      "Ġstepping": 6914,
      "Ġcares": 6915,
      "Ġartific": 6916,
      "ðŁĴķ": 6917,
      "Ġstudying": 6918,
      "Ġdifferently": 6919,
      "Ġhopefully": 6920,
      "agger": 6921,
      "Ġeditor": 6922,
      "Ġdreamed": 6923,
      "ĠðŁĺŃðŁĺŃ": 6924,
      "ðŁĻĥ": 6925,
      "ĠOrder": 6926,
      "ĠProfessor": 6927,
      "Ġcitizeness": 6928,
      "Ġdelightful": 6929,
      "Ġwondering": 6930,
      "Ġsmoking": 6931,
      "Ġpolitics": 6932,
      "Ġhostess": 6933,
      "Ġaudible": 6934,
      "Ġtwitching": 6935,
      "Ġissue": 6936,
      "Ġbeneath": 6937,
      "Ġmoves": 6938,
      "Ġshops": 6939,
      "Ġpossessed": 6940,
      "Ġdistinguish": 6941,
      "Ġpassionate": 6942,
      "Ġ1805": 6943,
      "Ġembarrassment": 6944,
      "Only": 6945,
      "Ġventured": 6946,
      "Ġdeliver": 6947,
      "Ġclutched": 6948,
      "Ġdesperately": 6949,
      "Ġradiant": 6950,
      "ĠMaybe": 6951,
      "Ġvexed": 6952,
      "Ġfetch": 6953,
      "Ġreferred": 6954,
      "ĠWarriors": 6955,
      "Ġobliged": 6956,
      "Ġetc": 6957,
      "Ġpoliceman": 6958,
      "Ġunconsciously": 6959,
      "Ġuneasily": 6960,
      "Ġhyp": 6961,
      "Ġdrowned": 6962,
      "Ġconsultant": 6963,
      "ĠCaes": 6964,
      "Ġprimus": 6965,
      "Ġintellectual": 6966,
      "ĠLatunsky": 6967,
      "Ġdepths": 6968,
      "Excuse": 6969,
      "Ġfeeble": 6970,
      "Ġaccomplished": 6971,
      "Ġconcentrated": 6972,
      "Ġacknowled": 6973,
      "Ġpilgr": 6974,
      "ĠMaximilian": 6975,
      "ĠGovernor": 6976,
      "Ġacquainted": 6977,
      "Ġcourier": 6978,
      "ĠPelageya": 6979,
      "Ġcrimson": 6980,
      "CH": 6981,
      "Get": 6982,
      "aid": 6983,
      "cap": 6984,
      "go": 6985,
      "gly": 6986,
      "oir": 6987,
      "parent": 6988,
      "yd": 6989,
      "yan": 6990,
      "yod": 6991,
      "âĺ": 6992,
      "hetic": 6993,
      "Ġaven": 6994,
      "ndri": 6995,
      "Ġhun": 6996,
      "Ġbos": 6997,
      "itively": 6998,
      "Ġcaut": 6999,
      "Ġfile": 7000,
      "Ġtow": 7001,
      "Ġmat": 7002,
      "Ġdu": 7003,
      "Ġthread": 7004,
      "lla": 7005,
      "Ġpacked": 7006,
      "Ġnin": 7007,
      "oti": 7008,
      "Ġbee": 7009,
      "Ġeve": 7010,
      "Ġyards": 7011,
      "Ġresemb": 7012,
      "eting": 7013,
      "Ġugly": 7014,
      "Ġrage": 7015,
      "Ġrush": 7016,
      "Ġrude": 7017,
      "irm": 7018,
      "ooks": 7019,
      "ĠPers": 7020,
      "Ġatm": 7021,
      "ereur": 7022,
      "ĠMat": 7023,
      "ĠBUT": 7024,
      "olks": 7025,
      "Ġshock": 7026,
      "ĠNi": 7027,
      "ichord": 7028,
      "rog": 7029,
      "roid": 7030,
      "ights": 7031,
      "Ġshell": 7032,
      "Ġvile": 7033,
      "Ġvote": 7034,
      "Ġweren": 7035,
      "Ġupstairs": 7036,
      "ĠRaev": 7037,
      "ulse": 7038,
      "Ġje": 7039,
      "ĠChe": 7040,
      "ĠForm": 7041,
      "ieu": 7042,
      "Ġgossi": 7043,
      "ĠHegemon": 7044,
      "ĠHendri": 7045,
      "ops": 7046,
      "Ġroast": 7047,
      "unction": 7048,
      "ĠðŁĺ«": 7049,
      "ĠðŁĺĩ": 7050,
      "ĠðŁĺĭ": 7051,
      "ĠðŁĺĿ": 7052,
      "aunt": 7053,
      "Ġunlike": 7054,
      "ĠGree": 7055,
      "ĠOlm": 7056,
      "ĠEl": 7057,
      "ĠEach": 7058,
      "Ġanybody": 7059,
      "ĠLooking": 7060,
      "avichord": 7061,
      "Ġamuse": 7062,
      "Ġclavichord": 7063,
      "Ġcock": 7064,
      "Ġcoarse": 7065,
      "arev": 7066,
      "Ġdisgr": 7067,
      "udge": 7068,
      "Ġbruh": 7069,
      "ĠVI": 7070,
      "cci": 7071,
      "Ġrights": 7072,
      "Ġthrong": 7073,
      "Ġconsent": 7074,
      "Ġnewcom": 7075,
      "Ġcompar": 7076,
      "Ġwrath": 7077,
      "Ġhousekeeper": 7078,
      "ĠIvanovna": 7079,
      "Ġtells": 7080,
      "ontov": 7081,
      "Ġ12": 7082,
      "Ġaccent": 7083,
      "Ġcapable": 7084,
      "ceptions": 7085,
      "Ġendless": 7086,
      "Ġlighted": 7087,
      "ailing": 7088,
      "Ġlover": 7089,
      "Ġinsol": 7090,
      "theless": 7091,
      "Ġanguish": 7092,
      "Ġreasoning": 7093,
      "Ġcolor": 7094,
      "Ġharder": 7095,
      "encing": 7096,
      "Ġabsolute": 7097,
      "ðŁĴ¯": 7098,
      "ðŁĴŀ": 7099,
      "Ġdetail": 7100,
      "Ġmission": 7101,
      "Ġcompanies": 7102,
      "Ġoppon": 7103,
      "Ġstraw": 7104,
      "Ġpretending": 7105,
      "Ġtryna": 7106,
      "Ġpatience": 7107,
      "aggy": 7108,
      "ĠDoes": 7109,
      "Ġeasier": 7110,
      "Ġoccupation": 7111,
      "Ġrespectful": 7112,
      "Ġexped": 7113,
      "Ġconsiderations": 7114,
      "Ġtenderly": 7115,
      "Ġspreading": 7116,
      "Ġproduce": 7117,
      "Ġfoolish": 7118,
      "Ġexamined": 7119,
      "Ġproperly": 7120,
      "ĠMichaud": 7121,
      "Ġsharply": 7122,
      "Ġlosses": 7123,
      "Ġchoice": 7124,
      "Ġmodern": 7125,
      "ĠDecember": 7126,
      "Ġappointment": 7127,
      "Ġpetition": 7128,
      "Ġchurches": 7129,
      "aaaa": 7130,
      "Ġwelcome": 7131,
      "Ġharmful": 7132,
      "Ġsinking": 7133,
      "Ġwrites": 7134,
      "Ġpossess": 7135,
      "Ġtyp": 7136,
      "Ġutterly": 7137,
      "ĠMarshal": 7138,
      "Ġcoffin": 7139,
      "Ġrisen": 7140,
      "Ġindifference": 7141,
      "ĠZhang": 7142,
      "blue": 7143,
      "ĠMany": 7144,
      "Ġnegoti": 7145,
      "Ġdomestic": 7146,
      "ðŁĺįðŁĺį": 7147,
      "Ġunconscious": 7148,
      "ĠDrissa": 7149,
      "Ġprocession": 7150,
      "IGH": 7151,
      "Ġseverely": 7152,
      "ĠArchibaldovich": 7153,
      "Ġignor": 7154,
      "Ġintroduced": 7155,
      "Ġrapturous": 7156,
      "Ġvehicles": 7157,
      "Ġribbon": 7158,
      "Ġshawl": 7159,
      "ĠCaptain": 7160,
      "Ġunusual": 7161,
      "Ġdistrict": 7162,
      "Ġsamovar": 7163,
      "Ġwassup": 7164,
      "ĠKrasnoe": 7165,
      "ĠRyazan": 7166,
      "Ġbosom": 7167,
      "ĠOlmutz": 7168,
      "Al": 7169,
      "HH": 7170,
      "Take": 7171,
      "VER": 7172,
      "aise": 7173,
      "bh": 7174,
      "boy": 7175,
      "col": 7176,
      "cision": 7177,
      "called": 7178,
      "ek": 7179,
      "har": 7180,
      "leness": 7181,
      "nut": 7182,
      "wear": 7183,
      "âľ": 7184,
      "Ġtu": 7185,
      "Ġtaught": 7186,
      "hered": 7187,
      "Ġtheater": 7188,
      "Ġsons": 7189,
      "Ġwretched": 7190,
      "Ġhi": 7191,
      "atives": 7192,
      "Ġbi": 7193,
      "isive": 7194,
      "isible": 7195,
      "Ġfest": 7196,
      "Ġfanc": 7197,
      "onn": 7198,
      "Ġtoes": 7199,
      "Ġtoss": 7200,
      "Ġtoile": 7201,
      "Ġmug": 7202,
      "Ġmuddy": 7203,
      "Ġdried": 7204,
      "Ġdick": 7205,
      "orad": 7206,
      "Ġpine": 7207,
      "Ġpens": 7208,
      "Ġpages": 7209,
      "ĠIS": 7210,
      "ĠIII": 7211,
      "Ġreins": 7212,
      "alt": 7213,
      "Ġrac": 7214,
      "Ġrhy": 7215,
      "Ġstove": 7216,
      "iring": 7217,
      "amber": 7218,
      "ammed": 7219,
      "Ġanaly": 7220,
      "ĠMed": 7221,
      "hers": 7222,
      "ĠHorse": 7223,
      "ĠSqu": 7224,
      "Ġship": 7225,
      "Ġshift": 7226,
      "ilities": 7227,
      "Ġkings": 7228,
      "ros": 7229,
      "ante": 7230,
      "Ġsuck": 7231,
      "elling": 7232,
      "Ġvac": 7233,
      "Ġvia": 7234,
      "Ġalb": 7235,
      "Ġaltered": 7236,
      "ĠFried": 7237,
      "ĠFyod": 7238,
      "Ġweap": 7239,
      "ĠðŁĺ±": 7240,
      "Ġqualities": 7241,
      "anges": 7242,
      "angled": 7243,
      "rence": 7244,
      "ĠLine": 7245,
      "Ġamusing": 7246,
      "Ġbless": 7247,
      "Ġproduc": 7248,
      "Ġclaim": 7249,
      "ðŁĺĳ": 7250,
      "aker": 7251,
      "Ġprice": 7252,
      "Ġflame": 7253,
      "Ġgrant": 7254,
      "Ġgrap": 7255,
      "Ġglittered": 7256,
      "ĠVor": 7257,
      "izes": 7258,
      "Ġcontained": 7259,
      "Ġcommitted": 7260,
      "Ġfox": 7261,
      "Ġlets": 7262,
      "ancis": 7263,
      "ĠJune": 7264,
      "cloth": 7265,
      "Ġresc": 7266,
      "Ġhoe": 7267,
      "Ġnevertheless": 7268,
      "Ġreputation": 7269,
      "Ġmarble": 7270,
      "Ġmarket": 7271,
      "Ġgreatness": 7272,
      "Ġkeen": 7273,
      "khovna": 7274,
      "Ġends": 7275,
      "Ġboard": 7276,
      "Ġdistorted": 7277,
      "Ġawh": 7278,
      "Ġswim": 7279,
      "Ġswoll": 7280,
      "ĠBecause": 7281,
      "Ġlocked": 7282,
      "Ġreform": 7283,
      "Ġkinds": 7284,
      "Ġsimpl": 7285,
      "Ġsimult": 7286,
      "ĠFrancis": 7287,
      "Ġdefin": 7288,
      "Ġdefend": 7289,
      "Ġminds": 7290,
      "ounce": 7291,
      "Ġhearts": 7292,
      "arming": 7293,
      "apping": 7294,
      "Ġdelivered": 7295,
      "Ġgrey": 7296,
      "Ġgallery": 7297,
      "Ġmuskets": 7298,
      "Ġremembering": 7299,
      "hhh": 7300,
      "Ġdisappo": 7301,
      "Ġdisappr": 7302,
      "Ġuttering": 7303,
      "Ġceiling": 7304,
      "Ġmilitiam": 7305,
      "Ġaims": 7306,
      "ooooo": 7307,
      "Ġexposed": 7308,
      "Ġdivided": 7309,
      "Ġretreated": 7310,
      "coming": 7311,
      "ĠKaragin": 7312,
      "cular": 7313,
      "Ġhopeless": 7314,
      "Ġmeaningless": 7315,
      "Ġboring": 7316,
      "Ġstrike": 7317,
      "Ġdealing": 7318,
      "Ġavoided": 7319,
      "Ġbandaged": 7320,
      "!!!!!!!!": 7321,
      "Ġbuildings": 7322,
      "Ġbelonging": 7323,
      "Ġjudg": 7324,
      "Ġjudging": 7325,
      "EEEE": 7326,
      "Ġconcealed": 7327,
      "Ġsenses": 7328,
      "Ġsongs": 7329,
      "Ġsenior": 7330,
      "Ġinquiry": 7331,
      "gorith": 7332,
      "Ġeleven": 7333,
      "Ġbirch": 7334,
      "Ġcostume": 7335,
      "Ġhabitual": 7336,
      "rolled": 7337,
      "Ġpunish": 7338,
      "Ġtweets": 7339,
      "Ġpassionately": 7340,
      "ĠXVI": 7341,
      "Ġironically": 7342,
      "Ġlamps": 7343,
      "Ġattendance": 7344,
      "Ġwrinkled": 7345,
      "ĠXIV": 7346,
      "Ġblew": 7347,
      "Ġmusketry": 7348,
      "standing": 7349,
      "ĠSuvorov": 7350,
      "Ġdeprived": 7351,
      "Ġtaste": 7352,
      "glass": 7353,
      "Ġpanic": 7354,
      "ĠAnton": 7355,
      "Ġarchitect": 7356,
      "layer": 7357,
      "Ġbewildered": 7358,
      "Ġculture": 7359,
      "ĠRedoubt": 7360,
      "Ġarrangements": 7361,
      "Ġencounter": 7362,
      "Ġmedicine": 7363,
      "Ġvelve": 7364,
      "Ġincoherent": 7365,
      "Ġartificial": 7366,
      "ĠNiemen": 7367,
      "ĠRaevski": 7368,
      "ĠHendrikhovna": 7369,
      "Ġswollen": 7370,
      "Bec": 7371,
      "Emp": 7372,
      "HER": 7373,
      "IR": 7374,
      "Mary": 7375,
      "Per": 7376,
      "Ser": 7377,
      "ae": 7378,
      "five": 7379,
      "hill": 7380,
      "iour": 7381,
      "lo": 7382,
      "lad": 7383,
      "ok": 7384,
      "pse": 7385,
      "pired": 7386,
      "rate": 7387,
      "sac": 7388,
      "wr": 7389,
      "yes": 7390,
      "âĻ": 7391,
      "Ġing": 7392,
      "Ġ....": 7393,
      "Ġtie": 7394,
      "Ġtenth": 7395,
      "Ġtask": 7396,
      "inity": 7397,
      "Ġsouth": 7398,
      "Ġsidel": 7399,
      "rev": 7400,
      "Ġhive": 7401,
      "erved": 7402,
      "Ġbind": 7403,
      "ouch": 7404,
      "Ġcro": 7405,
      "Ġcunning": 7406,
      "Ġfer": 7407,
      "ena": 7408,
      "onse": 7409,
      "Ġmouse": 7410,
      "Ġdad": 7411,
      "aros": 7412,
      "Ġlink": 7413,
      "Ġlux": 7414,
      "Ġpos": 7415,
      "Ġinj": 7416,
      "Ġnails": 7417,
      "Ġgas": 7418,
      "ĠInt": 7419,
      "Ġwashed": 7420,
      "Ġrelease": 7421,
      "alsky": 7422,
      "Ġrom": 7423,
      "ĠAI": 7424,
      "Ġstif": 7425,
      "Ġstab": 7426,
      "Ġsticking": 7427,
      "ĠPush": 7428,
      "Ġforbid": 7429,
      "âĢĻ.": 7430,
      "ĠBig": 7431,
      "ĠBeng": 7432,
      "ĠHoly": 7433,
      "olved": 7434,
      "ĠSH": 7435,
      "ĠSav": 7436,
      "ĠSave": 7437,
      "ĠNat": 7438,
      "ctor": 7439,
      "Ġkick": 7440,
      "Ġsheet": 7441,
      "Ġconvey": 7442,
      "elp": 7443,
      "aga": 7444,
      "uscript": 7445,
      "ĠRich": 7446,
      "Ġalright": 7447,
      "Ġlikes": 7448,
      "Ġjaw": 7449,
      "ĠDis": 7450,
      "ĠDam": 7451,
      "ĠDespite": 7452,
      "ĠCross": 7453,
      "Ġabrupt": 7454,
      "istory": 7455,
      "ĠFUCK": 7456,
      "Ġmanager": 7457,
      "Ġthereby": 7458,
      "Ġcharg": 7459,
      "Ġchallen": 7460,
      "Ġchanges": 7461,
      "ĠðŁĺª": 7462,
      "ĠðŁĺ¼": 7463,
      "Ġunite": 7464,
      "Ġquivering": 7465,
      "Ġpee": 7466,
      "Ġblowing": 7467,
      "Ġarmed": 7468,
      "Ġpron": 7469,
      "Ġpoison": 7470,
      "Ġbrushed": 7471,
      "Ġgrain": 7472,
      "fts": 7473,
      "ĠVereshchagin": 7474,
      "Ġens": 7475,
      "Ġcontent": 7476,
      "Ġspecially": 7477,
      "Ġcommitt": 7478,
      "Ġfoe": 7479,
      "fulness": 7480,
      "Ġresist": 7481,
      "Ġresounded": 7482,
      "Ġresolutely": 7483,
      "Ġconscience": 7484,
      "tedly": 7485,
      "Ġretin": 7486,
      "Ġreplies": 7487,
      "Ġreplaced": 7488,
      "Ġlasted": 7489,
      "Ġ14": 7490,
      "Ġ17": 7491,
      "Ġaccur": 7492,
      "Ġkeys": 7493,
      "Ġtech": 7494,
      "Ġbelief": 7495,
      "Ġchess": 7496,
      "Ġhoriz": 7497,
      "Ġendure": 7498,
      "Ġassured": 7499,
      "Ġassurance": 7500,
      "Ġcats": 7501,
      "Ġinviting": 7502,
      "Ġstarts": 7503,
      "Ġafford": 7504,
      "Ġrested": 7505,
      "Ġquestioned": 7506,
      "Ġangel": 7507,
      "Ġsubmit": 7508,
      "Ġreasonable": 7509,
      "Ġhighly": 7510,
      "Ġjoining": 7511,
      "Ġservices": 7512,
      "Ġmerged": 7513,
      "Ġsadness": 7514,
      "Ġhistorian": 7515,
      "Ġcoldly": 7516,
      "Ġconvince": 7517,
      "Ġcompanions": 7518,
      "Ġextended": 7519,
      "Ġflee": 7520,
      "Ġfleches": 7521,
      "Ġanimals": 7522,
      "Ġsoftened": 7523,
      "Ġapartments": 7524,
      "ĠNeural": 7525,
      "Ġdemon": 7526,
      "Ġacquired": 7527,
      "Ġcutting": 7528,
      "ĠWhatever": 7529,
      "ĠBalaga": 7530,
      "Ġhunger": 7531,
      "ĠAlso": 7532,
      "Ġtemples": 7533,
      "Ġsixth": 7534,
      "Ġsixteen": 7535,
      "Ġdifficulties": 7536,
      "osphere": 7537,
      "ĠIsn": 7538,
      "Ġmajority": 7539,
      "Ġhealthy": 7540,
      "Ġcomplicated": 7541,
      "kovya": 7542,
      "Ġmountains": 7543,
      "Ġperformance": 7544,
      "yyyy": 7545,
      "Ġfortune": 7546,
      "Ġuncertain": 7547,
      "Ġpossibly": 7548,
      "Ġdescribe": 7549,
      "Ġpoliteness": 7550,
      "Ġreflection": 7551,
      "ĠDanil": 7552,
      "Ġincreasing": 7553,
      "ĠTHIS": 7554,
      "Ġdeserve": 7555,
      "Ġdiscussed": 7556,
      "Ġmelted": 7557,
      "Ġsolemnly": 7558,
      "ĠEuropean": 7559,
      "ĠSpurs": 7560,
      "Ġtraveling": 7561,
      "Ġdimly": 7562,
      "Ġgreeted": 7563,
      "Ġbehav": 7564,
      "Ġbehaved": 7565,
      "Ġresolution": 7566,
      "Ġastonished": 7567,
      "Ġgleamed": 7568,
      "ĠMilorad": 7569,
      "Ġaffectionate": 7570,
      "Ġtearing": 7571,
      "Ġdebts": 7572,
      "Ġpopular": 7573,
      "addy": 7574,
      "Ġerror": 7575,
      "Ġstroke": 7576,
      "Ġtranquill": 7577,
      "Ġtranquil": 7578,
      "Ġemerged": 7579,
      "Ġindependent": 7580,
      "ĠSerge": 7581,
      "Ġstairway": 7582,
      "Ġpreparations": 7583,
      "Ġbayon": 7584,
      "ĠInstead": 7585,
      "Ġoriginal": 7586,
      "Ġconquer": 7587,
      "Ġincessantly": 7588,
      "ĠMassolit": 7589,
      "Ġgrab": 7590,
      "Ġthoroughly": 7591,
      "Ġaltogether": 7592,
      "ĠVyazma": 7593,
      "Ġmaneuvers": 7594,
      "Ġsarcast": 7595,
      "Ġdisgust": 7596,
      "Ġatmosphere": 7597,
      "Ġgossip": 7598,
      "ĠGreek": 7599,
      "IGHT": 7600,
      "ĠSquare": 7601,
      "Because": 7602,
      "Empereur": 7603,
      "sacrif": 7604,
      "Ġsidelong": 7605,
      "Ġluxur": 7606,
      "ĠBengalsky": 7607,
      "ĠMiloradovich": 7608,
      "10": 7609,
      "?'": 7610,
      "Am": 7611,
      "KE": 7612,
      "LE": 7613,
      "ao": 7614,
      "eem": 7615,
      "ege": 7616,
      "ference": 7617,
      "hum": 7618,
      "liness": 7619,
      "oor": 7620,
      "oqu": 7621,
      "rr": 7622,
      "rim": 7623,
      "ses": 7624,
      "tish": 7625,
      "va": 7626,
      "Ġawe": 7627,
      "Ġapr": 7628,
      "inate": 7629,
      "Ġsed": 7630,
      "Ġward": 7631,
      "Ġwaves": 7632,
      "atively": 7633,
      "Ġbra": 7634,
      "Ġbother": 7635,
      "Ġcough": 7636,
      "Ġcadet": 7637,
      "Ġmun": 7638,
      "Ġmult": 7639,
      "Ġmason": 7640,
      "Ġdanc": 7641,
      "Ġdined": 7642,
      "Ġdazz": 7643,
      "asm": 7644,
      "askovya": 7645,
      "Ġlin": 7646,
      "Ġple": 7647,
      "Ġnamed": 7648,
      "omes": 7649,
      "ĠII": 7650,
      "ĠIM": 7651,
      "ĠIX": 7652,
      "Ġbef": 7653,
      "Ġbeck": 7654,
      "Ġbeaming": 7655,
      "uter": 7656,
      "Ġrein": 7657,
      "Ġreleased": 7658,
      "ales": 7659,
      "ĠToday": 7660,
      "Ġstiff": 7661,
      "Ġstool": 7662,
      "Ġstyle": 7663,
      "ðŁļ": 7664,
      "erez": 7665,
      "ĠMiss": 7666,
      "ĠTheod": 7667,
      "ĠBol": 7668,
      "Ġseize": 7669,
      "Ġsoot": 7670,
      "ĠSpe": 7671,
      "Ġfruit": 7672,
      "Ġmeek": 7673,
      "Ġdope": 7674,
      "Ġven": 7675,
      "Ġvig": 7676,
      "Ġalarmed": 7677,
      "onezh": 7678,
      "apontov": 7679,
      "ula": 7680,
      "arted": 7681,
      "ĠDor": 7682,
      "ational": 7683,
      "ĠCity": 7684,
      "ounding": 7685,
      "Ġmanuscript": 7686,
      "Ġcombin": 7687,
      "inder": 7688,
      "opes": 7689,
      "Ġtrad": 7690,
      "Ġtrash": 7691,
      "ĠðŁĺ·": 7692,
      "Ġqueen": 7693,
      "ĠGO": 7694,
      "ĠGosp": 7695,
      "ĠKh": 7696,
      "ĠEd": 7697,
      "Ġwhenever": 7698,
      "assad": 7699,
      "Ġpreced": 7700,
      "Ġeyel": 7701,
      "Ġblank": 7702,
      "ðŁĺ¡": 7703,
      "ðŁĺ´": 7704,
      "thm": 7705,
      "Ġbecomes": 7706,
      "Ġflow": 7707,
      "Ġremote": 7708,
      "ĠVal": 7709,
      "ĠVol": 7710,
      "Ġmale": 7711,
      "Ġlonged": 7712,
      "Ġcounting": 7713,
      "Ġthanked": 7714,
      "Ġcontri": 7715,
      "Ġfog": 7716,
      "ĠAnis": 7717,
      "atting": 7718,
      "pressed": 7719,
      "Ġtalent": 7720,
      "Ġhog": 7721,
      "Ġpassport": 7722,
      "Ġperished": 7723,
      "shine": 7724,
      "Ġbelt": 7725,
      "Ġpresents": 7726,
      "Ġcaps": 7727,
      "Ġcrown": 7728,
      "Ġcrime": 7729,
      "liked": 7730,
      "Ġsmiles": 7731,
      "Ġplayers": 7732,
      "Ġterm": 7733,
      "Ġinval": 7734,
      "Ġorderlies": 7735,
      "Ġdecent": 7736,
      "Ġaffected": 7737,
      "Ġsupplies": 7738,
      "Ġinspect": 7739,
      "Ġreadiness": 7740,
      "Ġquestioning": 7741,
      "Ġsimplicity": 7742,
      "Ġfireplace": 7743,
      "Ġsubst": 7744,
      "Ġdefined": 7745,
      "ĠðŁĴ¯": 7746,
      "Ġhelping": 7747,
      "Ġlegion": 7748,
      "Ġrecru": 7749,
      "ĠAfric": 7750,
      "Ġincon": 7751,
      "Ġincred": 7752,
      "Ġcontrast": 7753,
      "Ġdevised": 7754,
      "oubtedly": 7755,
      "ĠðŁĻĮ": 7756,
      "Ġsignal": 7757,
      "Ġfreely": 7758,
      "Ġlesser": 7759,
      "Ġsquee": 7760,
      "Ġbarn": 7761,
      "ĠArm": 7762,
      "Ġsunshine": 7763,
      "Ġcalcul": 7764,
      "Ġlowering": 7765,
      "Ġveil": 7766,
      "Ġtransl": 7767,
      "Ġpeaceful": 7768,
      "Ġvictim": 7769,
      "Ġweaker": 7770,
      "Ġquarrel": 7771,
      "Ġporter": 7772,
      "Ġwoods": 7773,
      "Ġprovince": 7774,
      "Ġmadman": 7775,
      "ĠAustrians": 7776,
      "Ġmisunder": 7777,
      "Ġoneself": 7778,
      "Ġavoiding": 7779,
      "Ġbands": 7780,
      "Ġfortun": 7781,
      "Ġfucked": 7782,
      "force": 7783,
      "Ġlieutenant": 7784,
      "OOK": 7785,
      "balle": 7786,
      "Ġnotebook": 7787,
      "ĠPraskovya": 7788,
      "ĠPoland": 7789,
      "Allow": 7790,
      "ructed": 7791,
      "Ġmurder": 7792,
      "Ġattractive": 7793,
      "Ġwitch": 7794,
      "Ġdeceived": 7795,
      "Ġbriefly": 7796,
      "Ġrequired": 7797,
      "Ġpunished": 7798,
      "Ġrapidity": 7799,
      "Ġdusty": 7800,
      "Ġexchange": 7801,
      "Ġattentive": 7802,
      "ĠSchon": 7803,
      "Ġtailcoat": 7804,
      "Ġintelligence": 7805,
      "ĠAbout": 7806,
      "Ġfaithful": 7807,
      "Ġpenetr": 7808,
      "Ġestablish": 7809,
      "Ġambassad": 7810,
      "Ġnoiselessly": 7811,
      "Ġpolicy": 7812,
      "Ġquartermaster": 7813,
      "Ġnapkin": 7814,
      "Ġtroubled": 7815,
      "ĠNetworks": 7816,
      "two": 7817,
      "Ġfrankly": 7818,
      "Ġsincerely": 7819,
      "atoes": 7820,
      "Ġtraitor": 7821,
      "Ġgathering": 7822,
      "Ġgoverness": 7823,
      "Ġclimbed": 7824,
      "Ġwaistcoat": 7825,
      "Ġbaseball": 7826,
      "Ġreluctantly": 7827,
      "Ġproposal": 7828,
      "ĠAmerica": 7829,
      "ĠNiza": 7830,
      "ĠFerapontov": 7831,
      "UST": 7832,
      "Ġresearch": 7833,
      "Ġbreeches": 7834,
      "Ġfrozen": 7835,
      "Ġbriskly": 7836,
      "ĠRevolution": 7837,
      "Ġproclamation": 7838,
      "Ġhorrified": 7839,
      "Ġinnocent": 7840,
      "oulevard": 7841,
      "Ġnewcomer": 7842,
      "Ġrhythm": 7843,
      "ĠFyodorovna": 7844,
      "ĠLinear": 7845,
      "ĠVoronezh": 7846,
      "Ġmilitiamen": 7847,
      "Ġretinue": 7848,
      "\".": 7849,
      "',": 7850,
      ".âĢĿ": 7851,
      "20": 7852,
      "bow": 7853,
      "bits": 7854,
      "cat": 7855,
      "cov": 7856,
      "every": 7857,
      "eenth": 7858,
      "fect": 7859,
      "hort": 7860,
      "loc": 7861,
      "mler": 7862,
      "nitsyn": 7863,
      "tured": 7864,
      "were": 7865,
      "yal": 7866,
      "Ġ!!": 7867,
      "Ģï¸ı": 7868,
      "Ġtf": 7869,
      "Ġtroy": 7870,
      "Ġtbh": 7871,
      "inov": 7872,
      "inting": 7873,
      "inski": 7874,
      "Ġsco": 7875,
      "Ġsoup": 7876,
      "Ġwont": 7877,
      "Ġwaving": 7878,
      "eral": 7879,
      "Ġfake": 7880,
      "Ġfolks": 7881,
      "oning": 7882,
      "only": 7883,
      "Ġmum": 7884,
      "Ġmour": 7885,
      "Ġdug": 7886,
      "Ġthir": 7887,
      "Ġlan": 7888,
      "Ġlid": 7889,
      "Ġpu": 7890,
      "Ġpite": 7891,
      "Ġpositions": 7892,
      "Ġgriev": 7893,
      "Ġgrav": 7894,
      "Ġgift": 7895,
      "Ġbearing": 7896,
      "icious": 7897,
      "stained": 7898,
      "veled": 7899,
      "Ġ\"'": 7900,
      "ĠTime": 7901,
      "Ġrushing": 7902,
      "Ġrays": 7903,
      "Ġrags": 7904,
      "Ġstaring": 7905,
      "irgin": 7906,
      "amiliar": 7907,
      "ĠMag": 7908,
      "ĠMus": 7909,
      "Ġisland": 7910,
      "ĠHal": 7911,
      "Ġsell": 7912,
      "ĠSan": 7913,
      "Ġshaggy": 7914,
      "Ġker": 7915,
      "Ġdeeper": 7916,
      "Ġdearest": 7917,
      "ĠRob": 7918,
      "ĠRemember": 7919,
      "ulated": 7920,
      "Ġjol": 7921,
      "ĠDist": 7922,
      "Ġoutl": 7923,
      "ĠCO": 7924,
      "ĠCy": 7925,
      "ĠCons": 7926,
      "Ġnobility": 7927,
      "ieved": 7928,
      "Ġtrade": 7929,
      "Ġchances": 7930,
      "ĠðŁĺ®": 7931,
      "ĠðŁĺ¹": 7932,
      "ĠðŁĺĪ": 7933,
      "resses": 7934,
      "ĠGold": 7935,
      "ĠOK": 7936,
      "ĠOb": 7937,
      "ĠOpen": 7938,
      "Ġplus": 7939,
      "Ġplate": 7940,
      "Ġsmashed": 7941,
      "renched": 7942,
      "Ġtavern": 7943,
      "Ġspare": 7944,
      "Ġunderwear": 7945,
      "Ġpeering": 7946,
      "ĠYES": 7947,
      "avkin": 7948,
      "Ġblunt": 7949,
      "Ġblessed": 7950,
      "Ġblocking": 7951,
      "Ġtwelve": 7952,
      "Ġovercome": 7953,
      "Ġdismiss": 7954,
      "Ġdisliked": 7955,
      "Ġbrick": 7956,
      "Ġflesh": 7957,
      "Ġglim": 7958,
      "Ġheaded": 7959,
      "Ġbeforehand": 7960,
      "coats": 7961,
      "actly": 7962,
      "ĠJuly": 7963,
      "closed": 7964,
      "Ġsched": 7965,
      "Ġscrap": 7966,
      "aiting": 7967,
      "aza": 7968,
      "Ġstrict": 7969,
      "Ġguide": 7970,
      "Ġperish": 7971,
      "Ġpercept": 7972,
      "Ġ24": 7973,
      "Ġslope": 7974,
      "Ġemails": 7975,
      "Ġobed": 7976,
      "Ġteacher": 7977,
      "Ġending": 7978,
      "Ġmorose": 7979,
      "Ġlighting": 7980,
      "Ġlightning": 7981,
      "Ġplayer": 7982,
      "ipation": 7983,
      "Ġswall": 7984,
      "intend": 7985,
      "Ġinterf": 7986,
      "Ġinsult": 7987,
      "ĠâĿ": 7988,
      "Ġsentin": 7989,
      "Ġprincesses": 7990,
      "Ġbrig": 7991,
      "Ġstandard": 7992,
      "Ġstandards": 7993,
      "Ġsubtle": 7994,
      "Ġcrowding": 7995,
      "ĠXII": 7996,
      "ĠðŁĳį": 7997,
      "Ġcolour": 7998,
      "Ġindign": 7999,
      "Ġhonored": 8000,
      "Ġjokes": 8001,
      "uffling": 8002,
      "Ġredd": 8003,
      "Ġredhead": 8004,
      "Ġfalls": 8005,
      "Ġmerit": 8006,
      "Ġnamely": 8007,
      "Ġwinning": 8008,
      "Ġbegins": 8009,
      "Ġboys": 8010,
      "Ġrider": 8011,
      "oisy": 8012,
      "Ġprominent": 8013,
      "Ġdispatch": 8014,
      "Ġdispleased": 8015,
      "Ġcollected": 8016,
      "Ġpatron": 8017,
      "Ġbridges": 8018,
      "Ġregardless": 8019,
      "Ġstrengthen": 8020,
      "Ġleaders": 8021,
      "oooooooo": 8022,
      "Ġindefinite": 8023,
      "Ġslightest": 8024,
      "Ġarranging": 8025,
      "ĠKarp": 8026,
      "Ġsolid": 8027,
      "Ġequality": 8028,
      "Ġpoetic": 8029,
      "000": 8030,
      "Ġsalt": 8031,
      "Ġescort": 8032,
      "Ġlandown": 8033,
      "Ġdemands": 8034,
      "Ġparade": 8035,
      "Ġfatig": 8036,
      "Ġteams": 8037,
      "Ġvalu": 8038,
      "Ġcraw": 8039,
      "Ġfortnight": 8040,
      "Ġstretching": 8041,
      "Ġphysically": 8042,
      "Ġcharacteristic": 8043,
      "Ġâĺ¹ï¸ı": 8044,
      "Ġinquiring": 8045,
      "Ġpetty": 8046,
      "formed": 8047,
      "Ġpictured": 8048,
      "Ġheroes": 8049,
      "Ġstirred": 8050,
      "ITH": 8051,
      "Ġpossession": 8052,
      "ĠMoreover": 8053,
      "Ġexchanging": 8054,
      "Ġsobbed": 8055,
      "Ġcontemptuously": 8056,
      "Ġpiercing": 8057,
      "Ġcriminals": 8058,
      "Ġcentury": 8059,
      "Ġradio": 8060,
      "Ġcontradiction": 8061,
      "Ġborzoi": 8062,
      "Ġwrinkles": 8063,
      "Ġbetrothed": 8064,
      "Ġshrugging": 8065,
      "Ġcampfire": 8066,
      "Ġwiping": 8067,
      "Ġhomie": 8068,
      "ðŁĴĢðŁĴĢ": 8069,
      "Ġeducated": 8070,
      "Ġhesitation": 8071,
      "Ġrenew": 8072,
      "Ġfilling": 8073,
      "ĠBlack": 8074,
      "Ġmeasures": 8075,
      "lovski": 8076,
      "Ġpowd": 8077,
      "Ġpowder": 8078,
      "Ġdisturbed": 8079,
      "ĠTurkey": 8080,
      "Ġindividuals": 8081,
      "Ġappreciate": 8082,
      "Ġrustle": 8083,
      "Ġdollars": 8084,
      "Ġavailable": 8085,
      "onovnitsyn": 8086,
      "Ġlatest": 8087,
      "Ġwithdraw": 8088,
      "Ġintentions": 8089,
      "Ġrecommend": 8090,
      "Ġsurroundings": 8091,
      "ĠLMAO": 8092,
      "ĠDrubetskoy": 8093,
      "Ġprovinces": 8094,
      "Ġachieve": 8095,
      "ĠRamballe": 8096,
      "ĠDimmler": 8097,
      "ĠMeanwhile": 8098,
      "ĠFreemasonry": 8099,
      "Ġmixed": 8100,
      "Ġsafety": 8101,
      "Ġdiscipl": 8102,
      "Ġtoilet": 8103,
      "Ġawhile": 8104,
      "Ġsimultaneously": 8105,
      "sacrifice": 8106,
      "Ġmasonic": 8107,
      "AP": 8108,
      "LD": 8109,
      "Pierre": 8110,
      "SU": 8111,
      "__": 8112,
      "covered": 8113,
      "ds": 8114,
      "dy": 8115,
      "ez": 8116,
      "fr": 8117,
      "fli": 8118,
      "foot": 8119,
      "hi": 8120,
      "rol": 8121,
      "six": 8122,
      "uary": 8123,
      "uge": 8124,
      "uits": 8125,
      "when": 8126,
      "Ġ0": 8127,
      "łï¸ı": 8128,
      "Ġtit": 8129,
      "Ġtel": 8130,
      "hend": 8131,
      "inter": 8132,
      "Ġthee": 8133,
      "Ġsly": 8134,
      "Ġsallow": 8135,
      "rehend": 8136,
      "Ġol": 8137,
      "eds": 8138,
      "atzen": 8139,
      "Ġbast": 8140,
      "Ġbunch": 8141,
      "itable": 8142,
      "Ġcuz": 8143,
      "Ġfw": 8144,
      "Ġdig": 8145,
      "ashes": 8146,
      "Ġheap": 8147,
      "Ġlind": 8148,
      "Ġpip": 8149,
      "Ġnet": 8150,
      "Ġniece": 8151,
      "lets": 8152,
      "adays": 8153,
      "imir": 8154,
      "ĠIV": 8155,
      "Ġerect": 8156,
      "Ġyup": 8157,
      "stal": 8158,
      "Ġrewards": 8159,
      "ayes": 8160,
      "ĠTil": 8161,
      "Ġric": 8162,
      "Ġram": 8163,
      "Ġroused": 8164,
      "Ġascend": 8165,
      "Ġhabits": 8166,
      "Ġforms": 8167,
      "amm": 8168,
      "Ġantic": 8169,
      "acon": 8170,
      "ĠMost": 8171,
      "ĠMother": 8172,
      "ĠBos": 8173,
      "ĠBerez": 8174,
      "ola": 8175,
      "olst": 8176,
      "Ġsection": 8177,
      "ĠSA": 8178,
      "cture": 8179,
      "Ġkitten": 8180,
      "ĠWu": 8181,
      "ĠWould": 8182,
      "arded": 8183,
      "Ġvest": 8184,
      "Ġvalley": 8185,
      "ests": 8186,
      "Ġju": 8187,
      "Ġjer": 8188,
      "Ġard": 8189,
      "ĠCould": 8190,
      "Ġnoon": 8191,
      "ĠHey": 8192,
      "Ġtrack": 8193,
      "Ġtruly": 8194,
      "Ġroyal": 8195,
      "ĠðŁĺĵ": 8196,
      "ĠðŁĺĸ": 8197,
      "ĠðŁĺĽ": 8198,
      "ĠðŁĺŀ": 8199,
      "Ġunited": 8200,
      "Ġaged": 8201,
      "ĠKe": 8202,
      "ĠKol": 8203,
      "ĠKoz": 8204,
      "ĠKonovnitsyn": 8205,
      "orthy": 8206,
      "Ġfearing": 8207,
      "urned": 8208,
      "Ġspy": 8209,
      "Ġimpend": 8210,
      "Ġwilling": 8211,
      "Ġbegging": 8212,
      "ĠYang": 8213,
      "assily": 8214,
      "Ġamount": 8215,
      "ileaks": 8216,
      "Ġcogn": 8217,
      "Ġcoats": 8218,
      "ares": 8219,
      "aret": 8220,
      "ðŁĺħ": 8221,
      "ðŁĺĴ": 8222,
      "ivities": 8223,
      "Ġthoughtful": 8224,
      "ables": 8225,
      "Ġgrunt": 8226,
      "skin": 8227,
      "Ġglobe": 8228,
      "ĠVII": 8229,
      "ĠVIII": 8230,
      "ĠVlad": 8231,
      "ĠVassily": 8232,
      "Ġ:/": 8233,
      "Ġcounten": 8234,
      "rup": 8235,
      "Ġspec": 8236,
      "ciences": 8237,
      "Ġcommence": 8238,
      "ĠJUST": 8239,
      "Ġtales": 8240,
      "Ġtalks": 8241,
      "Ġattained": 8242,
      "Ġdesires": 8243,
      "Ġimpet": 8244,
      "Ġmustn": 8245,
      "Ġstrained": 8246,
      "Ġstraining": 8247,
      "shot": 8248,
      "Ġadding": 8249,
      "ogel": 8250,
      "Ġdoorway": 8251,
      "ikileaks": 8252,
      "Ġchem": 8253,
      "Ġcheese": 8254,
      "Ġhorri": 8255,
      "rossed": 8256,
      "Ġboat": 8257,
      "Ġcrush": 8258,
      "Ġcrushed": 8259,
      "Ġsurface": 8260,
      "Ġawoke": 8261,
      "Ġfrontier": 8262,
      "ĠStr": 8263,
      "Ġinvitation": 8264,
      "Ġfinds": 8265,
      "Ġrefrain": 8266,
      "Ġrefusal": 8267,
      "Ġdecisive": 8268,
      "Ġrestr": 8269,
      "ĠâĨ": 8270,
      "Ġreadily": 8271,
      "Ġsubord": 8272,
      "Ġrecent": 8273,
      "Ġrecovered": 8274,
      "Ġ200": 8275,
      "ouncing": 8276,
      "Ġcolonn": 8277,
      "Ġskirt": 8278,
      "Ġhumor": 8279,
      "????": 8280,
      "ĠðŁĻģ": 8281,
      "ovingly": 8282,
      "Ġhalfway": 8283,
      "ðŁĴĸ": 8284,
      "Ġsurely": 8285,
      "Ġsquea": 8286,
      "Ġsuffer": 8287,
      "Ġsufficient": 8288,
      "Ġarriving": 8289,
      "Ġriders": 8290,
      "Ġridicule": 8291,
      "Ġsunk": 8292,
      "Ġposter": 8293,
      "Ġfloated": 8294,
      "Ġpretend": 8295,
      "Ġgentry": 8296,
      "Ġburied": 8297,
      "headed": 8298,
      "Ġcollapsed": 8299,
      "Ġpathetic": 8300,
      "ĠNeed": 8301,
      "ĠNeither": 8302,
      "Ġoccupy": 8303,
      "Ġbrightened": 8304,
      "ĠðŁİī": 8305,
      "Ġbreathe": 8306,
      "Ġresponse": 8307,
      "ĠOrlov": 8308,
      "Ġsolitary": 8309,
      "Ġsisters": 8310,
      "Ġpalm": 8311,
      "Ġspoiled": 8312,
      "Ġcourtiers": 8313,
      "Ġpoetry": 8314,
      "Ġvanity": 8315,
      "Ġcoughed": 8316,
      "Ġundoubtedly": 8317,
      "Ġnoticeable": 8318,
      "mmm": 8319,
      "Ġforests": 8320,
      "ĠBeside": 8321,
      "Ġinvoluntary": 8322,
      "Ġwhistled": 8323,
      "Ġbroadshe": 8324,
      "ridge": 8325,
      "Ġenjoying": 8326,
      "Ġcreep": 8327,
      "ĠPratzen": 8328,
      "ĠChristmas": 8329,
      "Ġharsh": 8330,
      "Ġmodest": 8331,
      "Ġwelcom": 8332,
      "Ġdepended": 8333,
      "Ġhospitals": 8334,
      "Ġneighbour": 8335,
      "Ġrulers": 8336,
      "Ġunfamiliar": 8337,
      "Ġdaily": 8338,
      "Ġtravel": 8339,
      "Ġimagining": 8340,
      "Ġdrawers": 8341,
      "ĠMorel": 8342,
      "Ġwisdom": 8343,
      "Ġbowl": 8344,
      "ðŁĻĦðŁĻĦ": 8345,
      "sequently": 8346,
      "Ġirritated": 8347,
      "Ġrepresented": 8348,
      "ĠBrothers": 8349,
      "ĠEnglishman": 8350,
      "Ġapproved": 8351,
      "Ġsleepless": 8352,
      "Ġreproachfully": 8353,
      "Ġenvy": 8354,
      "Ġreferring": 8355,
      "ĠTolly": 8356,
      "Ġsystems": 8357,
      "ĠKiriath": 8358,
      "Ġscrewed": 8359,
      "Ġmortal": 8360,
      "Ġprogramme": 8361,
      "Ġcarpet": 8362,
      "Ġfemin": 8363,
      "Ġnursery": 8364,
      "Ġfolded": 8365,
      "Ġpraise": 8366,
      "Ġimperial": 8367,
      "Ġwitnessed": 8368,
      "Ġpressure": 8369,
      "Ġfrequently": 8370,
      "Ġtrifles": 8371,
      "ĠStepanovich": 8372,
      "ĠKanavkin": 8373,
      "Ġsurrender": 8374,
      "ĠIndians": 8375,
      "Ġsparkling": 8376,
      "Ġenchanting": 8377,
      "Ġdetermined": 8378,
      "Ġmurmured": 8379,
      "Ġlarger": 8380,
      "Ġzeal": 8381,
      "Ġadopted": 8382,
      "Ġgyps": 8383,
      "Ġnewspaper": 8384,
      "ðŁĶ¥ðŁĶ¥": 8385,
      "Really": 8386,
      "Ġexercise": 8387,
      "Ġpsych": 8388,
      "Ġhorizon": 8389,
      "Ġinvalid": 8390,
      "ĠHalf": 8391,
      "Ġdiscipline": 8392,
      "flix": 8393,
      "ĠBerezina": 8394,
      "ĠKozlovski": 8395,
      "Ġimpending": 8396,
      "ĠVladimir": 8397,
      "By": 8398,
      "Denisov": 8399,
      "ET": 8400,
      "MG": 8401,
      "Us": 8402,
      "bish": 8403,
      "cus": 8404,
      "da": 8405,
      "din": 8406,
      "eight": 8407,
      "from": 8408,
      "lit": 8409,
      "lor": 8410,
      "mo": 8411,
      "mun": 8412,
      "nie": 8413,
      "oid": 8414,
      "rich": 8415,
      "sion": 8416,
      "satisf": 8417,
      "uv": 8418,
      "uine": 8419,
      "ucci": 8420,
      "vent": 8421,
      "will": 8422,
      "wood": 8423,
      "ware": 8424,
      "Ġtroll": 8425,
      "Ġtutor": 8426,
      "Ġau": 8427,
      "Ġaver": 8428,
      "Ġaides": 8429,
      "Ġsire": 8430,
      "Ġsne": 8431,
      "rey": 8432,
      "Ġowing": 8433,
      "Ġhither": 8434,
      "Ġbot": 8435,
      "Ġbisc": 8436,
      "iture": 8437,
      "Ġcy": 8438,
      "Ġcig": 8439,
      "Ġcoward": 8440,
      "Ġfac": 8441,
      "Ġfist": 8442,
      "Ġfans": 8443,
      "onf": 8444,
      "Ġmas": 8445,
      "Ġdashing": 8446,
      "Ġdiverse": 8447,
      "anf": 8448,
      "anish": 8449,
      "escend": 8450,
      "llen": 8451,
      "Ġhei": 8452,
      "arant": 8453,
      "arks": 8454,
      "Ġlun": 8455,
      "Ġpig": 8456,
      "Ġpince": 8457,
      "Ġparch": 8458,
      "Ġnick": 8459,
      "omb": 8460,
      "Ġgasped": 8461,
      "otions": 8462,
      "otted": 8463,
      "Ġwasted": 8464,
      "Ġult": 8465,
      "alie": 8466,
      "ĠTver": 8467,
      "Ġrig": 8468,
      "Ġrug": 8469,
      "Ġrivers": 8470,
      "Ġrye": 8471,
      "ĠAc": 8472,
      "Ġstagg": 8473,
      "verse": 8474,
      "Ġham": 8475,
      "chi": 8476,
      "Ġanci": 8477,
      "rian": 8478,
      "ĠMort": 8479,
      "ĠBra": 8480,
      "ĠBang": 8481,
      "ĠBOOK": 8482,
      "ĠHate": 8483,
      "Ġseal": 8484,
      "ĠðŁĹ": 8485,
      "ĠSen": 8486,
      "Ġshak": 8487,
      "ĠNor": 8488,
      "roying": 8489,
      "andal": 8490,
      "Ġdeck": 8491,
      "eller": 8492,
      "ĠWish": 8493,
      "agne": 8494,
      "Ġvol": 8495,
      "usk": 8496,
      "Ġaltern": 8497,
      "Ġknock": 8498,
      "Ġknocking": 8499,
      "ĠDar": 8500,
      "ĠCr": 8501,
      "ĠCar": 8502,
      "Ġabbe": 8503,
      "ĠFoll": 8504,
      "Ġtramp": 8505,
      "Ġtrains": 8506,
      "owning": 8507,
      "Ġrock": 8508,
      "Ġchor": 8509,
      "Ġchim": 8510,
      "Ġchose": 8511,
      "ĠðŁĺ¯": 8512,
      "ĠðŁĺµ": 8513,
      "ĠðŁĺĦ": 8514,
      "ĠðŁĺł": 8515,
      "Ġunint": 8516,
      "Ġquant": 8517,
      "Ġquart": 8518,
      "Ġquality": 8519,
      "Ġquilt": 8520,
      "ĠOver": 8521,
      "ĠKam": 8522,
      "ĠEff": 8523,
      "ourb": 8524,
      "Ġhanding": 8525,
      "naim": 8526,
      "assion": 8527,
      "avy": 8528,
      "Ġjustify": 8529,
      "Ġprob": 8530,
      "Ġtwisted": 8531,
      "Ġdisf": 8532,
      "three": 8533,
      "ffaw": 8534,
      "Ġpondered": 8535,
      "Ġflattered": 8536,
      "Ġbackwards": 8537,
      "Ġhappily": 8538,
      "Ġcontaining": 8539,
      "ĠThink": 8540,
      "heng": 8541,
      "ĠJan": 8542,
      "Ġattended": 8543,
      "Ġresulted": 8544,
      "Ġscan": 8545,
      "Ġconserv": 8546,
      "Ġcomprehensible": 8547,
      "Ġowner": 8548,
      "Ġguards": 8549,
      "Ġguffaw": 8550,
      "Ġhuh": 8551,
      "Ġmarked": 8552,
      "Ġ25": 8553,
      "Ġpleasantly": 8554,
      "Ġaccused": 8555,
      "nez": 8556,
      "Ġfatherland": 8557,
      "Ġplays": 8558,
      "Ġinvented": 8559,
      "Ġinvisible": 8560,
      "Ġswallow": 8561,
      "ĠðŁ¤ĺ": 8562,
      "Ġrelate": 8563,
      "Ġsupposing": 8564,
      "Ġrealizing": 8565,
      "Ġâı": 8566,
      "eeee": 8567,
      "Ġadvent": 8568,
      "ĠSok": 8569,
      "Ġvisiting": 8570,
      "ĠðŁĴ©": 8571,
      "Ġmasters": 8572,
      "ĠXIII": 8573,
      "itsa": 8574,
      "Ġhurts": 8575,
      "ifications": 8576,
      "ground": 8577,
      "Ġcondescend": 8578,
      "Ġdelir": 8579,
      "Ġdinners": 8580,
      "Ġcareless": 8581,
      "veland": 8582,
      "velope": 8583,
      "ðŁĴ¨": 8584,
      "Ġhistories": 8585,
      "Ġlessons": 8586,
      "Ġconvict": 8587,
      "Ġconvuls": 8588,
      "Ġkeeps": 8589,
      "Ġbarrel": 8590,
      "Ġtrial": 8591,
      "Ġilleg": 8592,
      "Ġsecure": 8593,
      "Ġpretended": 8594,
      "Ġdispersed": 8595,
      "Ġwhispers": 8596,
      "ĠEverybody": 8597,
      "Ġcompleted": 8598,
      "Ġpurity": 8599,
      "Ġmistakes": 8600,
      "Ġlifeless": 8601,
      "ĠShould": 8602,
      "Ġregarding": 8603,
      "Ġshoe": 8604,
      "Ġleader": 8605,
      "Ġfreshness": 8606,
      "Ġfuneral": 8607,
      "Ġexpensive": 8608,
      "ĠðŁĺŃðŁĺŃðŁĺŃ": 8609,
      "hemat": 8610,
      "Ġpropose": 8611,
      "Ġ40": 8612,
      "Ġidiot": 8613,
      "Ġbabe": 8614,
      "Ġjumping": 8615,
      "Ġfixedly": 8616,
      "Ġescaped": 8617,
      "Ġgenuine": 8618,
      "ological": 8619,
      "mination": 8620,
      "Ġimpressions": 8621,
      "Ġcomforting": 8622,
      "Ġreflections": 8623,
      "Ġsensation": 8624,
      "ĠChristian": 8625,
      "LLY": 8626,
      "ravo": 8627,
      "Ġsuggestion": 8628,
      "ĠEngland": 8629,
      "Ġheroic": 8630,
      "Ġruler": 8631,
      "Ġthreatened": 8632,
      "Ġdismay": 8633,
      "Ġrumors": 8634,
      "Ġcasting": 8635,
      "Ġ1809": 8636,
      "ĠSchoss": 8637,
      "Ġbehave": 8638,
      "Forgive": 8639,
      "Ġattempted": 8640,
      "Ġwagon": 8641,
      "Ġremarkable": 8642,
      "Ġspending": 8643,
      "Ġpursued": 8644,
      "Ġcruelty": 8645,
      "ocha": 8646,
      "Ġcivilian": 8647,
      "Ġqueer": 8648,
      "Ġperplexed": 8649,
      "Ġcustomary": 8650,
      "Ġannoying": 8651,
      "Ġbitterly": 8652,
      "Ġdissatisfaction": 8653,
      "Ġlanguage": 8654,
      "Ġlocal": 8655,
      "ðŁİī": 8656,
      "Ġcarpets": 8657,
      "Ġimpatiently": 8658,
      "ĠFedorovna": 8659,
      "Ġrecalling": 8660,
      "Ġvaguely": 8661,
      "Ġemployed": 8662,
      "Ġbills": 8663,
      "Ġdishon": 8664,
      "ograph": 8665,
      "Ġpatriotic": 8666,
      "ðŁĲ£": 8667,
      "Ġshrieked": 8668,
      "ĠSemenovsk": 8669,
      "Ġphenomena": 8670,
      "Ġconnections": 8671,
      "shaven": 8672,
      "Ġpuckered": 8673,
      "Ġvideo": 8674,
      "ĠFinally": 8675,
      "Ġunreason": 8676,
      "Ġsavage": 8677,
      "Ġexperiment": 8678,
      "confident": 8679,
      "Ġinstitutions": 8680,
      "Ġabstract": 8681,
      "ĠCaesar": 8682,
      "ĠFrieda": 8683,
      "Ġsimplest": 8684,
      "Ġvelvet": 8685,
      "Ġtechn": 8686,
      "Ġtranquillity": 8687,
      "Ġambassador": 8688,
      "covites": 8689,
      "Ġtitle": 8690,
      "ĠTilsit": 8691,
      "olstoy": 8692,
      "ĠKolocha": 8693,
      "Ġhorrible": 8694,
      "Ġparchment": 8695,
      "Ġancients": 8696,
      "!...âĢĻ": 8697,
      "BA": 8698,
      "ID": 8699,
      "Never": 8700,
      "Rab": 8701,
      "Sh": 8702,
      "born": 8703,
      "can": 8704,
      "did": 8705,
      "ease": 8706,
      "kk": 8707,
      "kins": 8708,
      "love": 8709,
      "mich": 8710,
      "mart": 8711,
      "moon": 8712,
      "nitski": 8713,
      "pin": 8714,
      "pal": 8715,
      "rage": 8716,
      "son": 8717,
      "sill": 8718,
      "spect": 8719,
      "ti": 8720,
      "uated": 8721,
      "uild": 8722,
      "wo": 8723,
      "Ġtough": 8724,
      "Ġtend": 8725,
      "Ġtattered": 8726,
      "Ġtucked": 8727,
      "Ġtrod": 8728,
      "Ġah": 8729,
      "Ġwattle": 8730,
      "Ġhole": 8731,
      "athed": 8732,
      "Ġbang": 8733,
      "Ġcot": 8734,
      "Ġcure": 8735,
      "Ġcash": 8736,
      "Ġfuss": 8737,
      "Ġtoken": 8738,
      "Ġdang": 8739,
      "Ġdaught": 8740,
      "Ġdata": 8741,
      "organ": 8742,
      "Ġinher": 8743,
      "Ġgig": 8744,
      "leg": 8745,
      "ada": 8746,
      "oters": 8747,
      "ĠIma": 8748,
      "uttered": 8749,
      "lyukov": 8750,
      "idents": 8751,
      "Ġrender": 8752,
      "Ġreli": 8753,
      "entle": 8754,
      "lder": 8755,
      "ldom": 8756,
      "Ġrange": 8757,
      "Ġrings": 8758,
      "Ġropes": 8759,
      "ĠAL": 8760,
      "ĠAM": 8761,
      "ĠPot": 8762,
      "ĠPal": 8763,
      "erers": 8764,
      "ĠMom": 8765,
      "hern": 8766,
      "ĠBR": 8767,
      "ĠBron": 8768,
      "ĠBIG": 8769,
      "ĠHon": 8770,
      "ĠHouse": 8771,
      "ĠHistory": 8772,
      "olong": 8773,
      "Ġsequ": 8774,
      "Ġseldom": 8775,
      "Ġsoil": 8776,
      "ille": 8777,
      "ĠSy": 8778,
      "ĠSem": 8779,
      "ĠSea": 8780,
      "Ġshr": 8781,
      "Ġshield": 8782,
      "ilight": 8783,
      "roit": 8784,
      "aine": 8785,
      "Ġalliance": 8786,
      "outs": 8787,
      "antsev": 8788,
      "Ġconven": 8789,
      "ĠWHAT": 8790,
      "Ġupd": 8791,
      "ĠRef": 8792,
      "Ġalien": 8793,
      "Ġknaps": 8794,
      "estion": 8795,
      "Ġjew": 8796,
      "ousing": 8797,
      "ĠAndre": 8798,
      "ostov": 8799,
      "ĠDO": 8800,
      "ĠDunch": 8801,
      "ĠCor": 8802,
      "ĠCal": 8803,
      "ĠCubs": 8804,
      "Ġabashed": 8805,
      "istent": 8806,
      "ĠFour": 8807,
      "ĠFine": 8808,
      "ĠFOR": 8809,
      "hao": 8810,
      "Ġleague": 8811,
      "igning": 8812,
      "ĠðŁĺ¡": 8813,
      "ĠðŁĺ£": 8814,
      "ĠðŁĺ¶": 8815,
      "ĠðŁĺĢ": 8816,
      "ĠðŁĺŁ": 8817,
      "Ġuncon": 8818,
      "Ġquivered": 8819,
      "odes": 8820,
      "ĠOk": 8821,
      "Ġplait": 8822,
      "Ġplung": 8823,
      "raz": 8824,
      "perse": 8825,
      "Ġfeed": 8826,
      "pling": 8827,
      "Ġtale": 8828,
      "ptions": 8829,
      "ĠLaz": 8830,
      "Ġadored": 8831,
      "Ġwillingly": 8832,
      "Ġblown": 8833,
      "Ġclasped": 8834,
      "Ġtwilight": 8835,
      "arer": 8836,
      "ðŁĺ³": 8837,
      "ðŁĺī": 8838,
      "ðŁĺĶ": 8839,
      "ðŁĺĽ": 8840,
      "Ġoverfl": 8841,
      "Ġdisd": 8842,
      "Ġdisaster": 8843,
      "udes": 8844,
      "ivier": 8845,
      "Ġflag": 8846,
      "Ġflared": 8847,
      "Ġflower": 8848,
      "Ġflash": 8849,
      "Ġgrows": 8850,
      "Ġgloves": 8851,
      "izza": 8852,
      "Ġwherever": 8853,
      "Ġmenacing": 8854,
      "bern": 8855,
      "achine": 8856,
      "Ġgotch": 8857,
      "Ġresumed": 8858,
      "Ġscore": 8859,
      "Ġentrench": 8860,
      "Ġimpulse": 8861,
      "Ġregion": 8862,
      "Ġstring": 8863,
      "Ġguided": 8864,
      "Ġmark": 8865,
      "Ġneedle": 8866,
      "Ġexpressions": 8867,
      "Ġemail": 8868,
      "iliate": 8869,
      "Ġhorn": 8870,
      "Ġpresently": 8871,
      "Ġbond": 8872,
      "Ġconfer": 8873,
      "Ġcrimes": 8874,
      "Ġforeseen": 8875,
      "Ġdistress": 8876,
      "Ġcorners": 8877,
      "Ġinvite": 8878,
      "Ġinvasion": 8879,
      "Ġswung": 8880,
      "ĠBeyond": 8881,
      "Ġsets": 8882,
      "Ġrefusing": 8883,
      "Ġcontinuing": 8884,
      "Ġrealm": 8885,
      "Ġinspired": 8886,
      "Ġâļ": 8887,
      "Ġadvise": 8888,
      "Ġvisits": 8889,
      "Ġsubmiss": 8890,
      "Ġwhiskers": 8891,
      "Ġhalt": 8892,
      "ĠðŁĳĭ": 8893,
      "ouncil": 8894,
      "Ġindust": 8895,
      "Ġskull": 8896,
      "ĠChar": 8897,
      "ĠVaska": 8898,
      "Ġquicker": 8899,
      "Ġmetal": 8900,
      "Ġsteel": 8901,
      "Ġsteady": 8902,
      "ĠYesterday": 8903,
      "Ġrapture": 8904,
      "phones": 8905,
      "ecided": 8906,
      "Ġwins": 8907,
      "Ġwinked": 8908,
      "Ġwinking": 8909,
      "Ġstudied": 8910,
      "Ġsurprising": 8911,
      "Ġbarrier": 8912,
      "Ġcrystal": 8913,
      "Ġcalam": 8914,
      "Ġseverity": 8915,
      "Ġdispute": 8916,
      "Ġdestroying": 8917,
      "Ġexpectation": 8918,
      "Ġembroid": 8919,
      "Ġutmost": 8920,
      "Ġprevented": 8921,
      "Ġrubbish": 8922,
      "Ġpoints": 8923,
      "Ġtransparent": 8924,
      "Ġtowns": 8925,
      "Ġshooting": 8926,
      "Ġfreshly": 8927,
      "Ġappearing": 8928,
      "eyed": 8929,
      "Ġdiary": 8930,
      "Ġforeigners": 8931,
      "Ġ50": 8932,
      "Ġfirmness": 8933,
      "Ġsolution": 8934,
      "Ġsweat": 8935,
      "Ġtempor": 8936,
      "Ġsixty": 8937,
      "ĠLiu": 8938,
      "Ġequip": 8939,
      "Ġhahahaha": 8940,
      "Ġsolely": 8941,
      "Ġsales": 8942,
      "Ġdealt": 8943,
      "Ġastr": 8944,
      "flower": 8945,
      "Ġexamine": 8946,
      "feld": 8947,
      "ĠBaron": 8948,
      "ThisIs": 8949,
      "Ġdescribing": 8950,
      "Ġconceive": 8951,
      "ĠDanube": 8952,
      "Ġchoked": 8953,
      "Ġchoking": 8954,
      "Ġenjoyment": 8955,
      "ĠMelyukov": 8956,
      "Ġphysi": 8957,
      "ĠJudea": 8958,
      "ĠProv": 8959,
      "Ġlimited": 8960,
      "Ġdepartment": 8961,
      "Ġreproached": 8962,
      "Ġunpleasantly": 8963,
      "Ġpitiful": 8964,
      "Ġeleg": 8965,
      "Ġspectators": 8966,
      "Ġsovereigns": 8967,
      "Ġ90": 8968,
      "Ġprotection": 8969,
      "Ġtormenting": 8970,
      "Ġgreetings": 8971,
      "ESS": 8972,
      "Ġstreams": 8973,
      "ĠXXX": 8974,
      "Ġexecutioner": 8975,
      "Ġgaiety": 8976,
      "Ġdetachments": 8977,
      "Ġkingdom": 8978,
      "Ġpacket": 8979,
      "Ġpeculi": 8980,
      "Ġnational": 8981,
      "Ġofficials": 8982,
      "Ġviolence": 8983,
      "ĠFatherland": 8984,
      "Ġconducted": 8985,
      "Ġhoarsely": 8986,
      "Ġbleeding": 8987,
      "Ġscrut": 8988,
      "Ġerr": 8989,
      "Ġticket": 8990,
      "Ġannoyed": 8991,
      "Ġcooked": 8992,
      "Ġcooks": 8993,
      "Ġtroubles": 8994,
      "ĠApple": 8995,
      "Ġindependently": 8996,
      "Ġstores": 8997,
      "Ġliberty": 8998,
      "Ġcreature": 8999,
      "Ġmoaning": 9000,
      "ĠBogdanovich": 9001,
      "ĠPok": 9002,
      "Ġconsequently": 9003,
      "Ġmaintained": 9004,
      "----------------": 9005,
      "Ġpouring": 9006,
      "Ġvainly": 9007,
      "Ġmystery": 9008,
      "Ġintimacy": 9009,
      "Ġsurrendered": 9010,
      "Ġphrase": 9011,
      "Ġphrases": 9012,
      "Ġdeliberately": 9013,
      "Ġfiery": 9014,
      "Ġseventh": 9015,
      "ĠOthers": 9016,
      "Ġflourishing": 9017,
      "ĠModels": 9018,
      "Ġslippers": 9019,
      "Ġcongratulate": 9020,
      "piti": 9021,
      "Ġrattled": 9022,
      "Ġchampagne": 9023,
      "Ġconsolation": 9024,
      "Ġdisplay": 9025,
      "Ġmagnanimity": 9026,
      "Ġirresistible": 9027,
      "fourth": 9028,
      "âĢįâĻ": 9029,
      "ĠOptimization": 9030,
      "Ġmerchant": 9031,
      "ĠMitenka": 9032,
      "Ġdrummer": 9033,
      "Ġmeadow": 9034,
      "Ġgratitude": 9035,
      "Ġperspiring": 9036,
      "Ġninet": 9037,
      "Ġresembling": 9038,
      "Ġcomparison": 9039,
      "Ġopponent": 9040,
      "Ġpensively": 9041,
      "Ġblessing": 9042,
      "Ġchallenge": 9043,
      "Ġapron": 9044,
      "Ġbeckoned": 9045,
      "ĠAnisya": 9046,
      "ĠGoldstein": 9047,
      "Ġschedule": 9048,
      "Ġfatigue": 9049,
      "Ġcountenance": 9050,
      "Ġcolonnade": 9051,
      "Ġwelcomed": 9052,
      "ĠBraun": 9053,
      "ðŁĲ£ðŁĴŀ": 9054,
      "Rabban": 9055,
      "Ġdaughters": 9056,
      "ĠDunchil": 9057,
      "ThisIsUs": 9058,
      "'?\"": 9059,
      "11": 9060,
      "AA": 9061,
      "EN": 9062,
      "En": 9063,
      "Gr": 9064,
      "Listen": 9065,
      "bage": 9066,
      "bby": 9067,
      "dr": 9068,
      "fit": 9069,
      "father": 9070,
      "friend": 9071,
      "gen": 9072,
      "lord": 9073,
      "ping": 9074,
      "rov": 9075,
      "rice": 9076,
      "rance": 9077,
      "spe": 9078,
      "toned": 9079,
      "vation": 9080,
      "wed": 9081,
      "Ġ^": 9082,
      "ĠâĢĻ": 9083,
      "Ġtip": 9084,
      "Ġtread": 9085,
      "inarily": 9086,
      "Ġske": 9087,
      "Ġsill": 9088,
      "Ġsout": 9089,
      "Ġsilly": 9090,
      "Ġsciences": 9091,
      "erous": 9092,
      "atan": 9093,
      "Ġbul": 9094,
      "Ġbord": 9095,
      "Ġbub": 9096,
      "Ġboulevard": 9097,
      "itating": 9098,
      "isha": 9099,
      "ishes": 9100,
      "Ġcattle": 9101,
      "Ġfed": 9102,
      "Ġfame": 9103,
      "enburg": 9104,
      "onskaya": 9105,
      "Ġmush": 9106,
      "Ġthy": 9107,
      "Ġthresh": 9108,
      "lle": 9109,
      "ariat": 9110,
      "Ġlest": 9111,
      "Ġlaz": 9112,
      "Ġlining": 9113,
      "Ġped": 9114,
      "Ġpup": 9115,
      "Ġpants": 9116,
      "Ġpuss": 9117,
      "Ġpacking": 9118,
      "Ġpanting": 9119,
      "omin": 9120,
      "Ġgain": 9121,
      "Ġgap": 9122,
      "Ġgang": 9123,
      "otes": 9124,
      "ĠIll": 9125,
      "icted": 9126,
      "ician": 9127,
      "Ġwhir": 9128,
      "ĠTR": 9129,
      "ĠTrying": 9130,
      "ĠTrue": 9131,
      "Ġrat": 9132,
      "Ġracing": 9133,
      "ĠAS": 9134,
      "ĠALL": 9135,
      "Ġstake": 9136,
      "Ġstooping": 9137,
      "Ġstooped": 9138,
      "urt": 9139,
      "iron": 9140,
      "ĠPri": 9141,
      "ĠPres": 9142,
      "ĠBayes": 9143,
      "ĠHE": 9144,
      "ĠHas": 9145,
      "ĠðŁ§": 9146,
      "Ġsauce": 9147,
      "Ġsabers": 9148,
      "ĠSl": 9149,
      "ĠSor": 9150,
      "ĠSar": 9151,
      "ĠSay": 9152,
      "ĠSpar": 9153,
      "Ġshrew": 9154,
      "Ġshaven": 9155,
      "Ġshudd": 9156,
      "Ġshirts": 9157,
      "ĠNorth": 9158,
      "anded": 9159,
      "Ġconj": 9160,
      "Ġdeft": 9161,
      "Ġsugar": 9162,
      "Ġwhoever": 9163,
      "elly": 9164,
      "Ġbye": 9165,
      "agon": 9166,
      "Ġvib": 9167,
      "ĠRight": 9168,
      "ĠRats": 9169,
      "ested": 9170,
      "Ġliqu": 9171,
      "Ġjing": 9172,
      "Ġarbit": 9173,
      "ĠDark": 9174,
      "Ġoutst": 9175,
      "Ġoutpost": 9176,
      "ĠCher": 9177,
      "ĠComm": 9178,
      "ĠCouncil": 9179,
      "Ġmanners": 9180,
      "Ġinton": 9181,
      "Ġgoat": 9182,
      "Ġtrained": 9183,
      "Ġtruce": 9184,
      "Ġtrades": 9185,
      "igured": 9186,
      "Ġchase": 9187,
      "ĠðŁĺ¦": 9188,
      "ĠðŁĺ¨": 9189,
[...]
